#version: 0.2
M e
C a
Me L</w>
Ca MeL</w>
i n
r e
e t</w>
t i
t e
t r
g et</w>
o n</w>
I N
S T
a t
ST R
e n
IN G
STR ING
STRING $</w>
$ STRING$</w>
e r</w>
b l
ti on</w>
o n
u r
e r
p u
r o
a l
n e
in g</w>
t a
a s
u l
E R
o r
c e
N U
NU M
NUM B
l e
NUMB ER
NUMBER $</w>
$ NUMBER$</w>
i c</w>
ne w</w>
bl ic</w>
i f</w>
pu blic</w>
tr ing</w>
t ur
S tring</w>
tur n</w>
re turn</w>
I n
t h
s t</w>
a m
o r</w>
e c
en t</w>
a r
s e</w>
a n
in t</w>
s et</w>
i l
i d</w>
o u
c e</w>
E x
d e
s ta
a l</w>
p tion</w>
s i
u e</w>
ul l</w>
am e</w>
v o
a d
r i
at e</w>
e l
i s</w>
vo id</w>
R e
n ull</w>
d e</w>
ce ption</w>
a c
l o
Ex ception</w>
l as
t e</w>
C on
y p
bl e</w>
t s</w>
re s
sta n
C o
e s</w>
m ent</w>
a g
q u
x t</w>
b u
j ec
m p
yp e</w>
n t</w>
N ame</w>
d i
jec t</w>
f i
e d</w>
te r</w>
las s</w>
al ue</w>
t h</w>
L i
o o
ul t</w>
b ject</w>
c o
ad d</w>
th ro
= =</w>
a n</w>
a tion</w>
te d</w>
c h
tr i
pu t</w>
P ro
s er
a p
v i
il e</w>
N o
t y</w>
T ype</w>
c on
D e
t or</w>
f in
c tion</w>
th is</w>
s s
S t
c h</w>
O bject</w>
s te
re a
T e
ag e</w>
el se</w>
l i
p ro
i n</w>
at a</w>
! =</w>
r a
tri bu
al s</w>
ser t</w>
w s</w>
de x</w>
le ment</w>
S e
s t
te r
A t
Li st</w>
In stan
ti on
le an</w>
m a
oo lean</w>
l e</w>
v e</w>
p er
qu als</w>
en g
u m</w>
res ult</w>
C lass</w>
as sert</w>
tr y</w>
V alue</w>
thro ws</w>
C h
E n
fin al</w>
u m
v er
+ +</w>
re nt</w>
eng th</w>
o c
z e</w>
f or</w>
b oolean</w>
ce s</w>
as e</w>
tion s</w>
d er</w>
n o
B u
D i
e x
No de</w>
si on</w>
ap p
ou ble</w>
m o
s p
ou t</w>
or t</w>
al se</w>
v ent</w>
u p
en d</w>
at ch</w>
A r
F ile</w>
te xt</w>
l ength</w>
f f
a ble</w>
E lement</w>
At tribu
t o</w>
M o
e n</w>
a b
f alse</w>
tr ue</w>
o l
M a
a r</w>
in stan
c ted</w>
c re
i g
o ur
p r
u n
i d
e y</w>
or y</w>
v alue</w>
n ame</w>
c lass</w>
a v
ad er</w>
Co mp
m e
s c
i t</w>
E vent</w>
s e
S y
our ce</w>
at or</w>
at h</w>
S ta
F i
d ouble</w>
D ata</w>
d s</w>
In dex</w>
P ar
cre ate</w>
S et</w>
Co l
P a
p ar
& &</w>
ss age</w>
Re s
g er</w>
c atch</w>
T r
app end</w>
S i
ti c</w>
m e</w>
s tr
thro w</w>
f a
l a
Attribu te</w>
n er</w>
el d</w>
p ri
O ver
e st</w>
an d
s h
ste m</w>
P o
m p</w>
ri de</w>
t ory</w>
Over ride</w>
Te xt</w>
an g
f o</w>
f or
p o
o k
c ur
T o</w>
n um</w>
Sy stem</w>
ra y</w>
p tions</w>
Te st</w>
v ate</w>
d ata</w>
c ase</w>
f lo
t t
U ti
Instan ce</w>
th o
I d</w>
Instan ces</w>
de l</w>
e quals</w>
t put</w>
on ent</w>
e l</w>
pri vate</w>
l s</w>
te st</w>
sta tic</w>
E quals</w>
S er
L o
c k</w>
te s</w>
le ction</w>
A d
si ze</w>
m en
ig h
s u
av a</w>
in e</w>
sc ri
T i
H e
V i
Pro per
tho d</w>
A c
il d</w>
rea m</w>
ta in
am e
p a
a s</w>
in dex</w>
A ction</w>
re n
s er</w>
g s</w>
ou nt</w>
u p</w>
Ma p</w>
l u
te m</w>
ne l</w>
O u
Ar ray</w>
t l
cur rent</w>
f e
or e</w>
Me ssage</w>
F ac
K ey</w>
ou n
A T
qu est</w>
pr in
U R
al u
ro r</w>
s s</w>
Li ste
te cted</w>
r t</w>
Fi eld</w>
t ype</w>
E di
pro tected</w>
tl n</w>
prin tln</w>
l l</w>
Comp onent</w>
In put</w>
o w</w>
i z
an s
Mo del</w>
o f</w>
ac tion</w>
re d</w>
ok en</w>
y te</w>
vi ce</w>
flo w</w>
St ream</w>
In fo</w>
no de</w>
ff er</w>
rea d</w>
re e</w>
O f</w>
F or
a d</w>
| |</w>
u s</w>
ac k
D at
ce of</w>
instan ceof</w>
fe ren
e x</w>
L oc
l er</w>
j ava</w>
c t</w>
rea k</w>
i s
u ment</w>
Con text</w>
N e
ne xt</w>
Fac tory</w>
Proper ty</w>
fa ult</w>
b reak</w>
P re
U n
te nt</w>
ec tor</w>
P ath</w>
A S
mo ve</w>
T h
a y
Liste ner</w>
in d
up er</w>
De scri
R E
Uti ls</w>
A n
w or
fi er</w>
on g</w>
V ector</w>
I mp
il ter</w>
In te
Si ze</w>
co mp
v er</w>
ce ss
ang e</w>
No t</w>
I D</w>
igh t</w>
er s</w>
S u
ma t</w>
i c
P er
Con fi
res s</w>
B e
Me thod</w>
ce ss</w>
an ag
Pa nel</w>
e v
w ri
b er</w>
ti es</w>
O R
ti ve</w>
ur e</w>
t o
ac t</w>
ro up</w>
Inte ger</w>
al o
feren ce</w>
p re
le cted</w>
Ex p
Ou tput</w>
f ile</w>
a t</w>
G r
P ort</w>
N ull</w>
C las
Q u
alo g</w>
a g</w>
O ption</w>
ab el</w>
I tem</w>
w h
anag er</w>
o ptions</w>
St ate</w>
E N
ta ble</w>
+ =</w>
d ate</w>
er y</w>
O N</w>
h as</w>
alu es</w>
I O</w>
He ader</w>
k ey</w>
in k</w>
Tr ans
i ty</w>
le g
g ger</w>
re move</w>
en ti
id th</w>
H and
instan ce</w>
m m
L ay
ti vi
at us</w>
Ser vice</w>
o m</w>
0 0
E r
p ort</w>
g in</w>
for m
e lement</w>
tivi ty</w>
m y</w>
a flow</w>
T I
el l</w>
M anager</w>
T oken</w>
T ree</w>
ro m</w>
D E
b yte</w>
men ts</w>
lo g</w>
u n</w>
Bu ffer</w>
s uper</w>
at tribu
con tain
pr int</w>
C ount</w>
te n
um n</w>
m ar
p t</w>
ec k</w>
S h
on se</w>
m l</w>
t a</w>
O N
cess or</w>
Re quest</w>
Con str
Sta ck</w>
co l
a bl
sta rt</w>
o bject</w>
tt on</w>
wh ile</w>
Res ult</w>
Lay out</w>
c ation</w>
te mp</w>
in put</w>
ff set</w>
co p
F ilter</w>
ter ator</w>
ex p
v al</w>
wri te</w>
ul e</w>
li st</w>
R O
Imp l</w>
e w</w>
in ts</w>
M L</w>
h e
Re ference</w>
i l</w>
S p
ma x</w>
p tor</w>
as h</w>
Er ror</w>
S ource</w>
Ti me</w>
a m</w>
N um
f f</w>
Tr ue</w>
L abel</w>
l ong</w>
e di
an d</w>
vi der</w>
A t</w>
i th</w>
yp es</w>
l y</w>
T E
tr a
O ptions</w>
s y
ur ation</w>
For mat</w>
T able</w>
F or</w>
r s</w>
res sion</w>
T ra
Attribu tes</w>
In ter
u c
an e</w>
Par ame
pa rent</w>
De fault</w>
abl ed</w>
bu g</w>
Co de</w>
L O
d at
G roup</w>
ne ction</w>
ou tput</w>
d o</w>
con text</w>
N am
Con tain
c al
Bu tton</w>
d ress</w>
O per
Con tent</w>
N um</w>
A R
ta tion</w>
Be an</w>
oc ument</w>
A L
attribu te</w>
or der</w>
D ec
en er
D ouble</w>
o b
r st</w>
S I
P ane</w>
Edi t</w>
i m
on e</w>
t u
b o
ch e
A ll</w>
le ments</w>
o w
Ch ild</w>
g uration</w>
R ec
in gs</w>
Constr a
s ource</w>
I d
lo gger</w>
il der</w>
Di alog</w>
s tring</w>
C ell</w>
g e</w>
Con stan
as t</w>
Se lected</w>
si g
En try</w>
leg al</w>
c ount</w>
al i
Se lection</w>
c lo
k e</w>
I l
In t</w>
En abled</w>
m in
ol d</w>
Il legal</w>
si fier</w>
w e
s sion</w>
Pa rent</w>
er ror</w>
al id
W ith</w>
ac k</w>
Col or</w>
o p
b e
or g</w>
sp a
X ML</w>
Ac tivity</w>
ti me</w>
W or
UR L</w>
V alues</w>
Hand ler</w>
oun d</w>
i t
me ssage</w>
Descri ptor</w>
St atus</w>
B o
P ack
par se</w>
l an
r un</w>
L ine</w>
lo ad</w>
T ypes</w>
en d
Res ource</w>
re c
c al</w>
in st</w>
Qu ery</w>
r ame</w>
L E</w>
ta r
AS T</w>
re quest</w>
de d</w>
A C
p er</w>
A N
ar gs</w>
W ri
A s
su b
r on
si tion</w>
ter s</w>
ap ter</w>
or s</w>
iz ed</w>
ch eck</w>
e vent</w>
S c
fi eld</w>
M i
A l
f t</w>
in fo</w>
o p</w>
Pro vider</w>
t r</w>
I n</w>
A M
tar get</w>
contain s</w>
l ine</w>
Contain er</w>
D ocument</w>
con fi
Dat aflow</w>
s w
Re g
I m
g r
mp ty</w>
on t</w>
Num ber</w>
ch ar</w>
m i
lan g</w>
de s</w>
B order</w>
m in</w>
Nam es</w>
me thod</w>
er r</w>
u te</w>
ind ing</w>
R un
Edi tor</w>
fi x</w>
L E
clo se</w>
UR I</w>
F rom</w>
Uti l</w>
A L</w>
p or
m a</w>
Exp ression</w>
Re sp
str act</w>
um er
Ne xt</w>
le s</w>
> =</w>
Trans action</w>
Ar g
ss ing</w>
Ad apter</w>
Vi si
st r</w>
C ur
Parame ter</w>
M ath</w>
h and
at ure</w>
Po int</w>
Vi ew</w>
Col umn</w>
W idth</w>
Clas sifier</w>
Confi guration</w>
s es</w>
ro w</w>
form ed</w>
Ad dress</w>
U p
V er
Resp onse</w>
las t</w>
T ag</w>
S E
t mp</w>
y le</w>
D ate</w>
ob j</w>
sy n
ar ch</w>
s b</w>
C O
ab il
up date</w>
lu gin</w>
bu f</w>
spa ce</w>
ag es</w>
ap h</w>
re g
C li
Pro cessor</w>
o t</w>
le te</w>
o c</w>
Co mm
m s</w>
Con nection</w>
c lu
n al</w>
Bu ilder</w>
Ca p
> ></w>
j j</w>
in d</w>
Th read</w>
ti f
il d
n u</w>
Im age</w>
s ed</w>
Constan ts</w>
c on</w>
F I
q l</w>
e y
re s</w>
a b</w>
ar i
p ath</w>
Me nu</w>
H ash</w>
Col lection</w>
L ink</w>
W e
ar g</w>
cop y</w>
wor d</w>
po s</w>
ar y</w>
i tem</w>
P E</w>
te ment</w>
d b</w>
Constra ints</w>
ch ild</w>
a ve</w>
ta l</w>
P ri
li t</w>
Tra ce</w>
Q L</w>
ec ted</w>
at t</w>
co de</w>
Ca se</w>
s i</w>
ul ts</w>
Pack age</w>
g h
A p
A b
s c</w>
T ar
L ength</w>
y tes</w>
N AM
Wor k
IN G</w>
p s</w>
mp le</w>
A u
E mpty</w>
c tor</w>
ma in</w>
I terator</w>
che ma</w>
de fault</w>
w er</w>
T R
Arg ument</w>
x ml</w>
oo l</w>
d y</w>
i te</w>
B ase</w>
ce pt</w>
Me ta</w>
a ted</w>
B ag</w>
ind ow</w>
p la
S V
Sta rt</w>
F ont</w>
ch ron
Lo g</w>
Per formed</w>
B y</w>
Gr id</w>
O ffset</w>
O b
Loc ation</w>
vi si
w idth</w>
Proper ties</w>
m b
u se</w>
re n</w>
B oolean</w>
s g</w>
b c</w>
Tar get</w>
f il
Ca ch
De p
T Y
L ev
G ener
Oper ation</w>
Ch ange</w>
U ser</w>
Wri ter</w>
B yte</w>
en ts</w>
E lements</w>
flo at</w>
J ava</w>
en try</w>
ma p</w>
pro per
lo ck</w>
ab ase</w>
Cap abil
S tr
at ch
as s
lo cal</w>
fin d</w>
edi tor</w>
B inding</w>
S QL</w>
syn chron
L e
B i
ild ren</w>
S A
si p</w>
F rame</w>
Descri ption</w>
co l</w>
or i
R ow</w>
Re ader</w>
t oken</w>
Confi g</w>
iz er</w>
st ate</w>
Id enti
w ar
R oo
de bug</w>
Ma x</w>
bu ffer</w>
b y</w>
n s</w>
on s</w>
i ti
gh t</w>
TY PE</w>
Lo ader</w>
Se ssion</w>
te g
pro cess</w>
m t</w>
g n
re f
la y</w>
oc k</w>
synchron ized</w>
l ar
S up
c u
fi rst</w>
o ffset</w>
Sta tement</w>
mo del</w>
en ce</w>
B U
Di sp
I T
v ed</w>
th er</w>
n d
no tation</w>
ti fi
app ing</w>
< =</w>
tri x</w>
R ange</w>
li c
E S
Mi ssing</w>
E R</w>
for m</w>
0 0</w>
Ch ar</w>
re r</w>
Su b
r e</w>
An d</w>
tra in</w>
Roo t</w>
it ch</w>
Par ser</w>
I con</w>
Lev el</w>
a tive</w>
di sp
ame space</w>
t x</w>
comp onent</w>
H el
tu al</w>
t le</w>
ic o</w>
in ter
se lected</w>
i terator</w>
n ing</w>
O p
c las
res p
and om</w>
P si</w>
U r
NAM E</w>
F lo
g le</w>
ex ec
al id</w>
St yle</w>
M ar
tur e</w>
ss ages</w>
ac h
f rom</w>
Cli ent</w>
tion al</w>
re t</w>
o st</w>
M A
Ca l
bu ild</w>
ang ed</w>
c i
AT I
Pro ject</w>
Clas ses</w>
fa il</w>
k er</w>
sh ow</w>
co mm
tr ans
col umn</w>
Cur rent</w>
exp ected</w>
a tions</w>
am s</w>
Bo x</w>
l ate</w>
K E
le d</w>
U L
con tent</w>
ro w
s ql</w>
ro ot</w>
dat aflow</w>
umer ation</w>
resp onse</w>
al l</w>
d ule</w>
o ther</w>
v alues</w>
lo t</w>
Cach e</w>
li ste
instan ces</w>
V AL
par ame
Con tr
Si mple</w>
En d</w>
as k</w>
Mo de</w>
P lugin</w>
Loc al</w>
Me ssages</w>
U N
as et</w>
E v
g roup</w>
Ver sion</w>
s ts</w>
c s</w>
ar e</w>
L ong</w>
Se arch</w>
TI ON</w>
k ed</w>
ou se</w>
Pre di
k s</w>
N o</w>
le ct</w>
qu ery</w>
Ch ar
v alid
ass word</w>
he ight</w>
S ec
ur l</w>
Dat abase</w>
K ey
He ight</w>
e c</w>
c ate</w>
ali ze</w>
c l
el ds</w>
m ber</w>
in it</w>
St r</w>
Ser ver</w>
for mat</w>
an ce</w>
sw itch</w>
exec ute</w>
P RO
d ing</w>
N O
i p</w>
i tor</w>
p h
in vo
00 00</w>
c le
EN T</w>
U E</w>
W indow</w>
l b
at ter
t in
O n</w>
s ti
ag s</w>
ok en
De bug</w>
fin i
f ac
s ec
E D</w>
Se tt
Po sition</w>
Di rec
Ex ten
P r
a p</w>
m sg</w>
E S</w>
sig n</w>
di alog</w>
qu ence</w>
st atus</w>
u b</w>
g bc</w>
F e
av a
oun ds</w>
Un it</w>
mar sh
d ec
ex ten
Ne w</w>
b s</w>
am p
V alid
cop e</w>
mo f</w>
C re
Visi ble</w>
st mt</w>
en ame</w>
r c</w>
s h</w>
R ule</w>
st ream</w>
M on
le n</w>
f ilter</w>
pro cessor</w>
Ch anged</w>
O n
u ser</w>
En ti
ra y
s ter</w>
Comm and</w>
ser ver</w>
S chema</w>
C er
o s</w>
ro un
b ase</w>
la y
T er
O r
or d</w>
V ari
Ac cess</w>
s um
d ge</w>
Re f</w>
Po s</w>
H i
Di s
min al</w>
sub string</w>
o b</w>
M P
Fi rst</w>
Dec lar
di ces</w>
de scri
le ft</w>
c tions</w>
C L
i mp
ver t</w>
L in
F il
s um</w>
ar d</w>
ra w</w>
B ytes</w>
atter n</w>
cle ar</w>
Si p</w>
roun d</w>
de lete</w>
at tr</w>
R o
ol der</w>
C lo
C ON
co m
se ts</w>
V al</w>
Mo di
tin ue</w>
An notation</w>
D O
Ou t</w>
nd le</w>
on d</w>
a u
ar ray</w>
po si
h ash</w>
ac tivity</w>
s or</w>
T A
Ma trix</w>
D ow
P age</w>
hand le</w>
En umeration</w>
vi ew</w>
M I
Hel per</w>
I s</w>
Gr aph</w>
al ly</w>
Reg is
Ap p
De f</w>
c l</w>
pla ce</w>
F a
fi ed</w>
Ch eck</w>
G E</w>
con tinue</w>
contain er</w>
g ri
UL T</w>
m atch</w>
ma ke</w>
th e</w>
in al</w>
res ol
Run time</w>
Ad d</w>
U I</w>
ser vice</w>
Di r</w>
G ro
C E</w>
i ties</w>
qu i
visi t</w>
A s</w>
g ener
Up date</w>
G et</w>
No des</w>
ri ght</w>
jec ts</w>
s ave</w>
t ree</w>
M apping</w>
Ab stract</w>
- -</w>
d oc</w>
C lu
Enti ty</w>
sp lit</w>
ab stract</w>
M in</w>
C H
i ts</w>
igh ts</w>
Ti p</w>
ach e</w>
pu ts</w>
Par se</w>
AT E</w>
L I
t ors</w>
enti ty</w>
E X
wor k
E C
F A
reg is
confi g</w>
vi sion</w>
M ore</w>
j p</w>
un ction</w>
TE R</w>
x y</w>
d u
ref lection</w>
por ted</w>
l ink</w>
comp are</w>
Direc tory</w>
a f</w>
p i
s on</w>
par am</w>
po int</w>
ic al</w>
S ig
Di men
l abel</w>
B ar</w>
Ev alu
ev t</w>
De fini
at s</w>
he ader</w>
s up
di s
i ter</w>
fin ally</w>
B lock</w>
n ers</w>
fi ers</w>
Ur l</w>
fa ce</w>
valid ate</w>
to p</w>
e lements</w>
Ca ll</w>
tt p</w>
ce i
D I
I te
cl one</w>
Str uc
re f</w>
l ation</w>
T ab</w>
C oun
R un</w>
tif act</w>
ap e</w>
W OR
Sett ings</w>
O P
S P
U p</w>
f y</w>
invo ke</w>
Id x</w>
O R</w>
s p</w>
an s</w>
lb ack</w>
F alse</w>
s am</w>
g g
k et</w>
Se quence</w>
ar g
Res ults</w>
h ub</w>
R el
re a</w>
Capabil ities</w>
sh ort</w>
Ca n
proper ty</w>
sp ec
T ask</w>
se ssion</w>
Pre fix</w>
in iti
mo te</w>
su ite</w>
S T</w>
ur i</w>
Ser i
t ing</w>
Hand le</w>
re ct</w>
d f</w>
Declar ation</w>
o l</w>
B ounds</w>
LO G</w>
la g</w>
Res ol
I gn
liste ner</w>
Vi e
v alid</w>
P assword</w>
s ted</w>
tribu tion</w>
U T
VAL UE</w>
ap h
con nection</w>
o m
or ts</w>
posi tory</w>
P y</w>
t i</w>
we ight</w>
sta r
Col le
ff e
Dep th</w>
si ons</w>
Re vision</w>
Par am</w>
P ico</w>
Ign ore</w>
c a
F ound</w>
For m</w>
In dices</w>
mp late</w>
men u</w>
t ml</w>
F F</w>
wri ter</w>
Par t</w>
sig n
o se</w>
C u
j ava
mar y</w>
b est</w>
W ar
cu r</w>
Pro cess</w>
res ource</w>
el s</w>
in sert</w>
i o</w>
en able</w>
Regis try</w>
de p
ic s</w>
Dimen sion</w>
DE FA
to tal</w>
si te</w>
F ast</w>
Co m
SV N</w>
Work flow</w>
amp le</w>
ta data</w>
c li
O r</w>
d raw</w>
u table</w>
java x</w>
s rc</w>
Disp lay</w>
ro ll</w>
En co
Vari able</w>
gr aph</w>
N amespace</w>
L ast</w>
i r</w>
c an
or ted</w>
in ter</w>
co m</w>
in ing</w>
Identi fier</w>
M O
m bo
St ore</w>
DEFA ULT</w>
ch ildren</w>
Sh ort</w>
tif y</w>
f rame</w>
L oo
s end</w>
S te
mbo l</w>
Ti me
m atch
re set</w>
t ter</w>
a y</w>
re ader</w>
l ags</w>
al e</w>
n am
di tion</w>
op en</w>
Mon itor</w>
TR I
j l</w>
pro ject</w>
ATI ON</w>
Comp le
edi t</w>
H ost</w>
Lo gger</w>
oc us</w>
m it</w>
Defini tion</w>
U P</w>
c oun
g ress</w>
cal l</w>
an t</w>
form ation</w>
r app
a w
in s</w>
be an</w>
A li
r un
l et</w>
p y</w>
n load</w>
Ch ildren</w>
ev alu
A rea</w>
M ouse</w>
po sition</w>
At t</w>
Re ad</w>
T E</w>
V E</w>
lo b
m is
e ue</w>
pre fix</w>
id x</w>
ang u
ad dress</w>
S cope</w>
regis ter</w>
m ul
ER RO
Inter nal</w>
su b</w>
Me mber</w>
Constra int</w>
m er
L A
h s</w>
Bu ndle</w>
no a</w>
S O
ERRO R</w>
tifi cate</w>
pa int</w>
T oken
parame ter</w>
B as
te x
Dat aset</w>
hand ler</w>
re ference</w>
li cation</w>
W T</w>
CL AS
bl e
T ool</w>
re place</w>
uc tor</w>
C ore</w>
ex tr
S H
par ams</w>
Mo dule</w>
R andom</w>
Flo at</w>
Parame ters</w>
x is</w>
st ore</w>
teg ory</w>
B LE</w>
P RE
to col</w>
c ache</w>
a in</w>
As sert</w>
b r
Ob jects</w>
Sp lit</w>
f s</w>
D el
c y</w>
Sc ri
ser i
P res
angu age</w>
sta ck</w>
Ti tle</w>
Bo dy</w>
st ory</w>
p e
per i
c an</w>
ul es</w>
aw t</w>
I N</w>
Gener ator</w>
leg ate</w>
Op en</w>
Or der</w>
c as
Fi elds</w>
R I
an nel</w>
D E</w>
o ption</w>
wor ds</w>
f er
ra m</w>
p ack
ta il</w>
stan ce</w>
Th row
si ste
P attern</w>
be gin</w>
d ow
al izer</w>
ab s</w>
S E</w>
lic y</w>
re t
z z</w>
Exten sion</w>
ta g</w>
lob al</w>
V ER
P orts</w>
ter ation</w>
In vo
s ing</w>
attribu tes</w>
g ori
gori th
No minal</w>
st in
M E
pa nel</w>
Ser v
ce l</w>
U se</w>
Au th
m d</w>
MA X</w>
ce ll</w>
aph ics</w>
Capabil ity</w>
o o</w>
R en
con vert</w>
ver sion</w>
F unction</w>
proper ties</w>
Mo by</w>
AT TRI
di tional</w>
Co py</w>
M ENT</w>
el f</w>
i on</w>
F in
or m
ex p</w>
Sy n
ret val</w>
ATTRI BU
T H
le v
res ults</w>
as ter</w>
il l
ay es</w>
Sy mbol</w>
oc ket</w>
Li ter
st op</w>
Liste ners</w>
N et</w>
in ary</w>
Re port</w>
F ol
A R</w>
T H</w>
Fi les</w>
Fe ature</w>
Bi g</w>
Throw able</w>
gorith m</w>
Me tadata</w>
for e</w>
O w
Cer tificate</w>
M utable</w>
ou s</w>
De sc</w>
r andom</w>
ne d</w>
con str
SA X</w>
B ack
tho ds</w>
bu ilder</w>
T Y</w>
se arch</w>
Num er
In formation</w>
Inter face</w>
Clu ste
Su bject</w>
ro rs</w>
disp ose</w>
1 6</w>
ol ler</w>
WOR D</w>
im age</w>
H ttp</w>
lo w</w>
F lag</w>
< <</w>
M ul
d r</w>
p lugin</w>
KE Y
n um
B O
oo ser</w>
Sp ec</w>
ur ity</w>
end en
se lection</w>
St ats</w>
Constan t</w>
m on
c le</w>
Struc ture</w>
cas tor</w>
exten ds</w>
ta n
Oper ations</w>
o site</w>
S WT</w>
Numer ic</w>
M y</w>
Re mote</w>
b ytes</w>
pro vider</w>
Rec ord</w>
i te
Pro xy</w>
G en</w>
c c</w>
qu al</w>
e p</w>
gener ate</w>
f ter</w>
ar s</w>
ffe red</w>
fil l</w>
Con ne
S S
Ex ec
R a
Loc k</w>
feren ces</w>
Gro uper</w>
i o
M atch</w>
end ar</w>
S pa
At om</w>
Per siste
par ser</w>
Ou t
al ler</w>
n amespace</w>
SV G</w>
al iz
s ol
ten ts</w>
L A</w>
no des</w>
Con cept</w>
ter nal</w>
Re turn</w>
ex ception</w>
g u
no tify</w>
AC E</w>
Hi story</w>
de rer</w>
tri es</w>
Sig n
P u
In iti
Char ac
D oc</w>
F r
Ar tifact</w>
par ator</w>
as h
stin ation</w>
confi guration</w>
I S</w>
r ange</w>
ou r</w>
teg y</w>
ti tle</w>
Flo w</w>
n ative</w>
marsh al</w>
S w
Q U
V I
P O
Vi su
oc l</w>
sup ported</w>
CLAS S</w>
resol ve</w>
un it</w>
We ights</w>
X ml</w>
f ound</w>
l able</w>
tifi cation</w>
mb o</w>
or ig
ol ab</w>
g round</w>
tri m</w>
Cre ate</w>
p lot</w>
ex olab</w>
Pr int</w>
ON E</w>
is ts</w>
L L</w>
no w
Ma in</w>
st om</w>
no ta
Bu ffered</w>
i e</w>
sh ell</w>
fac tory</w>
k ey
di r</w>
ar ray
Ex p</w>
star ts</w>
fer red</w>
d x</w>
s chema</w>
M atch
Sup p
con ne
Colle ctions</w>
Scri pt</w>
Co l</w>
S U
Pro file</w>
s o
L a
Liter al</w>
In valid</w>
Gr aphics</w>
st yle</w>
pro ps</w>
Valid ation</w>
P ER
imp l</w>
en ter</w>
col or</w>
h ost</w>
S in
ti v
Exp r</w>
c ore</w>
lo cation</w>
Ex peri
wor k</w>
eng ine</w>
array copy</w>
T oo
Te mplate</w>
Le ft</w>
Contr ol</w>
Lo wer</w>
sw ing</w>
e et</w>
Re move</w>
ev al</w>
a it</w>
ST AN
C OR
d uc
se lect</w>
Su b</w>
App lication</w>
Al gorithm</w>
de n</w>
A D
F ocus</w>
or ity</w>
Po ints</w>
o in</w>
I C
Re pository</w>
rapp er</w>
en tation</w>
Ar ray
m an
p ico</w>
DE R</w>
lay out</w>
ch ange</w>
l ing</w>
S tra
V ar</w>
s k
SI ON</w>
Key words</w>
c tx</w>
Array s</w>
si ve</w>
Comp il
ang es</w>
sec ond</w>
C EN
tan gle</w>
Z E</w>
ph a</w>
im um</w>
Constr uctor</w>
v als</w>
le x
P i
al ized</w>
Coun ts</w>
Mi me</w>
num ber</w>
Po licy</w>
g en</w>
Sc roll</w>
ta ct</w>
Spa ce</w>
ac cept</w>
x ed</w>
Vie wer</w>
ti me
J ob</w>
ad e</w>
n ings</w>
um ns</w>
dat aset</w>
Ch ooser</w>
I C</w>
o k</w>
n ce</w>
Ste p</w>
H T
war n</w>
il able</w>
ble m</w>
Re p
Cal endar</w>
Serv let</w>
Contr oller</w>
u ti
run time</w>
N S</w>
im al</w>
de st</w>
b r</w>
Sup port</w>
d l</w>
Dow n</w>
Un supported</w>
j f</w>
s si
P er</w>
At tr</w>
descri ption</w>
um ents</w>
o per
s elf</w>
u tion</w>
le men
parame ters</w>
at ts</w>
mo di
fi elds</w>
KEY WORD</w>
Sp ec
ad ers</w>
ac tive</w>
War nings</w>
ill is</w>
W h
r up
A ss
I f</w>
For m
Qu eue</w>
F OR
T ER
ex it</w>
n able</w>
In st</w>
M ES
g e
en ds</w>
Stra tegy</w>
fil ename</w>
clu de</w>
Ch ec
l in
Se ed</w>
r an
g ure</w>
extr act</w>
V alid</w>
il s</w>
v ari
MES SA
I D
l a</w>
pu p</w>
L IN
i led</w>
work flow</w>
Com ment</w>
on ents</w>
On ly</w>
res h
Se q</w>
Re cei
p age</w>
D b</w>
Rec tangle</w>
A P
M in
k a</w>
t ypes</w>
Ac tive</w>
oc i
st ing</w>
disp lay</w>
S ave</w>
Experi ment</w>
v en
ec h
d ocument</w>
Par ams</w>
Me r
ne w
ou t
Pro gress</w>
fi re</w>
CEN TER</w>
duc er</w>
K ind</w>
S ocket</w>
Dep enden
D AT
As sign</w>
Con ver
B inary</w>
Sec urity</w>
Tra in</w>
B A</w>
er t</w>
i fy</w>
vi ron
exp ression</w>
En um</w>
bu tton</w>
our ces</w>
Ch annel</w>
En g
F F
bl ock</w>
n o</w>
M illis</w>
Predi ctor</w>
Ter min
Evalu ator</w>
Me as
Uti li
re port</w>
Ite ms</w>
Supp ress</w>
SI ZE</w>
e ar</w>
k ing</w>
P AR
Persiste nce</w>
viron ment</w>
dep th</w>
T o
N O</w>
j j
qu e
ma r</w>
3 2</w>
Pa ir</w>
MESSA GE</w>
Po inter</w>
Ro le</w>
u res</w>
clas sifier</w>
le ctor</w>
C UP</w>
Charac ter</w>
an y</w>
in ner</w>
me mber</w>
ou ter</w>
o main</w>
r ule</w>
A S</w>
S ER
col lection</w>
Back ground</w>
Co mbo</w>
Se ts</w>
ar ch
Enco ding</w>
ta b</w>
A D</w>
comm and</w>
w ith</w>
cal e</w>
re q</w>
w indow</w>
sh ed</w>
cre en</w>
SI P</w>
Invo cation</w>
v ar</w>
Spec i
up s</w>
Eng ine</w>
en v</w>
p c</w>
mis sion</w>
Fol ds</w>
pu sh</w>
A g
om g</w>
lex er</w>
ce d</w>
am mar</w>
cli ent</w>
H tml</w>
m ouse</w>
an sp
h i
F IN
te red</w>
T O
f r
Identi ty</w>
Wri te</w>
M IN
gr id</w>
c r
ser name</w>
Pro cess
res h</w>
e d
trans action</w>
Ex ternal</w>
lo ader</w>
On e</w>
h el
s a
IN STAN
H ash
sta mp</w>
Con dition</w>
comm it</w>
Su ite</w>
Sign ature</w>
c ls</w>
S che
sol ute</w>
Rec t</w>
COR BA</w>
de sc</w>
con sum
lo c
X T</w>
vi te</w>
marsh aller</w>
resh old</w>
f lags</w>
en code</w>
W rapper</w>
t oken
ta ils</w>
s ort</w>
er i
s k</w>
Imp ort</w>
ch or</w>
Ren derer</w>
TE D</w>
m er</w>
O K</w>
vi ous</w>
pro p</w>
S um</w>
orig inal</w>
g ro
b e</w>
Run nable</w>
No tification</w>
le m</w>
Ow ner</w>
lev el</w>
S S</w>
p i</w>
clu sive</w>
ec t</w>
b inding</w>
row ser</w>
or iz
R A
con n</w>
gri dy</w>
mi ssing</w>
ac tual</w>
id entity</w>
H o
Comp ar
c ul
In str
P lot</w>
qui red</w>
e k</w>
Ob j</w>
M ock</w>
O cl</w>
uti l</w>
br ary</w>
Dec l</w>
Di st</w>
Ite ra
- =</w>
a vi
re ad
evalu ate</w>
Pre ferred</w>
di st</w>
H T</w>
en um</w>
con tr
Comp osite</w>
cur r</w>
co mp</w>
Imp lemen
arg v</w>
As sign
C E
c b</w>
Dow nload</w>
nam es</w>
mer ge</w>
t up</w>
Mo ve</w>
en co
IT Y</w>
L S</w>
At ta
m ory</w>
t f</w>
INSTAN CE</w>
lo ok
Pro ducer</w>
FI LE</w>
we igh
Pro du
ven ance</w>
Resol ver</w>
Up per</w>
Sin gle</w>
S C
Ca tegory</w>
pre di
mi tive</w>
di ff</w>
si mple</w>
lo w
Time out</w>
Fil ename</w>
I teration</w>
T ech
N ul
B ayes</w>
re cei
Bu ild</w>
lu sh</w>
ra w
E dge</w>
dis tribution</w>
r tual</w>
ATTRIBU TE</w>
p tors</w>
c la
F older</w>
Be fore</w>
Cur sor</w>
Token izer</w>
ag ment</w>
sc an
LO W</w>
Sc ore</w>
s cope</w>
x es</w>
g lobal</w>
Clo se</w>
Tech n
Par ti
Mar sh
Techn ical</w>
e mpty</w>
k ind</w>
P A
Dis tribution</w>
We ight</w>
descri ptor</w>
L U
de l
Sta tic</w>
L D</w>
We b</w>
at ter</w>
re la
Cu stom</w>
o id</w>
rup ted</w>
m ock</w>
OP TION</w>
Reg ion</w>
DO M</w>
T ri
Di g
Lo ad</w>
N ONE</w>
d ers</w>
or ds</w>
Mer ge</w>
dec o
Bas ic</w>
P as
s age</w>
DE BU
w ait</w>
PRO PER
m apping</w>
er o</w>
sti m
me ta</w>
c or
cal lback</w>
M E</w>
f oo</w>
o ff</w>
Trans form</w>
x f</w>
ansp ort</w>
B it</w>
b ack
N on</w>
ol s</w>
De lete</w>
we ka</w>
D L</w>
Sh ape</w>
si fiers</w>
j sc</w>
Termin ated</w>
di rec
O ri
scri pt</w>
Evalu ation</w>
B atch</w>
ma trix</w>
u st</w>
D A
bo x</w>
Dec imal</w>
ta sk</w>
a red</w>
Ar gs</w>
R ules</w>
CO MP
Key s</w>
U T</w>
Se lect</w>
At ts</w>
P ool</w>
Cluste rer</w>
T op</w>
ri ver</w>
In sets</w>
U R</w>
I ds</w>
tex tual</w>
Visi tor</w>
Utili ties</w>
Me mory</w>
l d</w>
pack age</w>
initi alize</w>
f e</w>
mar t</w>
com pu
Ab solute</w>
fe ature</w>
ssi ble</w>
OR T</w>
c ent</w>
f lush</w>
KE Y</w>
por ts</w>
DEBU G</w>
Me thods</w>
g ment</w>
o i
Valid ator</w>
p assword</w>
p attern</w>
mi me</w>
al pha</w>
fi cation</w>
now n</w>
re paint</w>
sc ale</w>
B rowser</w>
TA G</w>
G E
E qual</w>
Pro blem</w>
abl es</w>
q ue</w>
d a
S ame</w>
N E
ex ists</w>
aliz ation</w>
Ac ce
lay er</w>
A v
P h
Le af</w>
L anguage</w>
f ont</w>
de legate</w>
a xis</w>
TE XT</w>
ic on</w>
al ity</w>
te ri
Nam ed</w>
Pro tocol</w>
b ind</w>
ite ms</w>
Nul lable</w>
Qu ali
Di stance</w>
y cle</w>
ad ditional</w>
Hash table</w>
Loo k
ow ner</w>
mo by</w>
R ight</w>
we ights</w>
ST ATE</w>
6 4</w>
Inter rupted</w>
Lin ked</w>
s orted</w>
S en
nota tions</w>
b its</w>
sti tu
J D
th read</w>
P ol
ver ify</w>
Comp onents</w>
an notation</w>
R ate</w>
s in
inter nal</w>
ti p
Ro ws</w>
c cess</w>
Bu ff</w>
con f</w>
gri dx</w>
fi les</w>
ES T</w>
pre v</w>
h tml</w>
edi ts</w>
re lation</w>
he ad</w>
Ur i</w>
s le
mo de</w>
A fter</w>
er nel</w>
H older</w>
En vironment</w>
- ></w>
I T</w>
T op
mo dule</w>
can cel</w>
ON S</w>
Lo gg
constr a
conne ct</w>
Gener ic</w>
al y
time out</w>
d res
ci es</w>
or d
spa ces</w>
d p</w>
C l
S ample</w>
r m</w>
s d</w>
Rec o
ch ar
at hs</w>
mar k</w>
bo dy</w>
e dge</w>
M sg</w>
no t</w>
s tor</w>
P df</w>
del ta</w>
I G
look up</w>
He aders</w>
Po pup</w>
man tic</w>
rec ord</w>
F T</w>
Un i
A xis</w>
Z one</w>
Sup ported</w>
pro tocol</w>
j oin</w>
For war
cla zz</w>
x a</w>
de f</w>
B C</w>
er e</w>
s m</w>
sh eet</w>
Col umns</w>
u sed</w>
id s</w>
um p</w>
n umer
n orm
V M</w>
Ass oci
ser v
coun ts</w>
f a</w>
D a
u ction</w>
F O
ver se</w>
con tact</w>
In it</w>
Se parator</w>
Clu ster</w>
Con tents</w>
mon itor</w>
al ink</w>
p p</w>
g ram</w>
mo ved</w>
Conver ter</w>
U ID</w>
Pri mitive</w>
l anguage</w>
c p</w>
f d</w>
S av
Li brary</w>
g r</w>
W i
comp le
B E
ag ram</w>
Per son</w>
exten sion</w>
Atta ch
u i</w>
m anager</w>
su n</w>
ig h</w>
Bu t</w>
De legate</w>
su bject</w>
ul d</w>
par e</w>
consum e</w>
ste p</w>
To tal</w>
ra p</w>
Th reshold</w>
Loc ale</w>
L en</w>
a ded</w>
Con sum
au th
D B</w>
d b
W s</w>
p k
l der</w>
Vi rtual</w>
spec tive</w>
TE S</w>
Sw ing</w>
d st</w>
u by</w>
Sh ow</w>
a e</w>
N r</w>
key s</w>
Er rors</w>
E stim
Re f
ro ws</w>
F ig
Ca r
S o
F lags</w>
vi ces</w>
coun ter</w>
mul ti</w>
cur sor</w>
Comple tion</w>
STR ING</w>
Visu al</w>
p red</w>
T S</w>
Compil ation</w>
IN T</w>
dat abase</w>
end ing</w>
Del ta</w>
le ase</w>
ame spaces</w>
ig n
ok e</w>
H as</w>
qu o
Wor d</w>
or ing</w>
igh li
str uc
dow nload</w>
b oo
ori es</w>
an ds</w>
ci p
g ed</w>
c a</w>
p e</w>
SE T</w>
Sta r
Ra w</w>
I Z
Cer t</w>
HT ML</w>
LO C
at ing</w>
Ap i</w>
k nown</w>
De tails</w>
j ob</w>
oi ce</w>
ro l
i shed</w>
Te ster</w>
compu te</w>
D ATE</w>
LE C
Pri mary</w>
Recei ved</w>
low ed</w>
Fr agment</w>
Av a
N orm
tr s</w>
e e</w>
tri b</w>
De tail</w>
C S</w>
o uld</w>
G S</w>
dow n</w>
in sets</w>
b il
Si te</w>
in puts</w>
H E
l ator</w>
Pack et</w>
O S</w>
in sts</w>
CO M
pre vious</w>
Time stamp</w>
up le</w>
W AR
ref resh</w>
oriz on
ar tifact</w>
Su ch</w>
Con textual</w>
Cal lback</w>
er rors</w>
Bi ts</w>
F o
E val</w>
B ound</w>
sh ip</w>
st all</w>
b ar</w>
di a</w>
C or
R uby</w>
Token s</w>
m aster</w>
MI N</w>
Descri ptors</w>
PROPER TY</w>
per son</w>
u id</w>
IT ER
m i</w>
de stination</w>
orizon tal</w>
ap p</w>
Run ner</w>
pre pare</w>
de fin
vo t</w>
s ink</w>
Fig ure</w>
ad i
match es</w>
s q
P l
tt ons</w>
clu ste
ff ff
Mul ti</w>
id get</w>
app ly</w>
Bi o
an chor</w>
sh ape</w>
ti m
b er
Se lector</w>
ro p</w>
E LE
exp r</w>
En d
B est</w>
confi gure</w>
se tt
Trans lation</w>
F ull</w>
en tr
ac count</w>
di stance</w>
Inter val</w>
sta tement</w>
s che
ti cal</w>
de tail</w>
En tries</w>
Disp atch</w>
a x
s w</w>
Meas ure</w>
T ags</w>
g es</w>
g ins</w>
tri cs</w>
e t
0 1</w>
ex cept</w>
O ff</w>
lo c</w>
A M</w>
N OR
ca tegory</w>
p ack</w>
d a</w>
tt ype</w>
B ran
NO T</w>
oper ation</w>
C H</w>
re pository</w>
b a
no minal</w>
RE S
S um
Pi x
D S</w>
por table</w>
Pro venance</w>
A UT
Per mission</w>
Au to</w>
u t
Ter m</w>
g b</w>
B ond</w>
O c
Fac et</w>
i r
P AT
Comple x</w>
re p
x ff</w>
S cale</w>
sp ath</w>
mb ers</w>
re ction</w>
s o</w>
con dition</w>
O F</w>
End point</w>
b en
i p
Comm on</w>
id enti
Re quired</w>
ab els</w>
tra ce</w>
t p</w>
or m</w>
sle ep</w>
D omain</w>
Attach ment</w>
tra ining</w>
com ment</w>
se ed</w>
p as
en u</w>
m s
se quence</w>
Out puts</w>
U S</w>
pa d</w>
f c</w>
m b</w>
Itera tions</w>
pro cess
sy stem</w>
t n</w>
t k</w>
De stination</w>
SP I</w>
Ex tr
v e
TH O
bil ity</w>
TI VE</w>
numer ic</w>
Hel p</w>
P e
s v
He ad</w>
AS K</w>
Ali gn
Ava ilable</w>
RE D</w>
Pa ren
rea ted</w>
B oo
cal cul
to p
Pu blic</w>
He x</w>
Ti mer</w>
Lay er</w>
ben ch</w>
In de
c md</w>
Syn ta
h ttp</w>
ali as</w>
| =</w>
ME THO
p se</w>
ser tion</w>
N ative</w>
t ool</w>
d er
Top ic</w>
f os</w>
v en</w>
EC T</w>
Clo sing</w>
dec lar
Ag ent</w>
An y</w>
e lem</w>
Align ment</w>
sti cs</w>
G lobal</w>
c ap
Form atter</w>
po p</w>
S Y
Str oke</w>
par t</w>
id den</w>
Sub set</w>
ti le</w>
Produ ct</w>
l av
le t
par ti
vari able</w>
DAT A</w>
Pres sed</w>
T AL</w>
pro gress</w>
abil ity</w>
Sett ing</w>
f ec
g ur
LIN E</w>
in dices</w>
tiv es</w>
Ex t</w>
e ts</w>
Rel a
c ert</w>
ad ing</w>
t c</w>
e p
s ure</w>
b ounds</w>
i ve</w>
po st</w>
Ac count</w>
tt om</w>
bo se</w>
c mof</w>
bl ing</w>
Look up</w>
te x</w>
L ITER
ci sion</w>
b it</w>
C M</w>
un k</w>
Reco gn
se q</w>
ch ars</w>
s n</w>
s al</w>
Modi fier</w>
LITER AL</w>
TI FF</w>
b ack</w>
ac tions</w>
AS E</w>
w o</w>
gr ammar</w>
EX P
lo op</w>
Rep ly</w>
B ack</w>
Estim ator</w>
X S
con tents</w>
De sc
te mplate</w>
ra g</w>
Co mp</w>
Too ls</w>
i teration</w>
Coun ter</w>
h o
P la
Res ources</w>
il ure</w>
Z ero</w>
A P</w>
me thods</w>
al t</w>
c u</w>
Ne sted</w>
form er</w>
T EN
R ou
Bran ch</w>
I P</w>
P I</w>
pi vot</w>
ES P
Auth enti
N a</w>
v as</w>
c tors</w>
tri bs</w>
i es</w>
Consum er</w>
E MP
Modi fied</w>
F LOW</w>
T a
UR E</w>
D river</w>
AL L</w>
NU LL</w>
B Y
Be h
bl k</w>
De v</w>
vi leg
Co st</w>
war ning</w>
Pro bs</w>
SE LEC
at ures</w>
Instr uction</w>
M app
s f</w>
th at</w>
a fter</w>
fec ycle</w>
e xt</w>
M ASK</w>
L Y</w>
Ac tions</w>
L s</w>
cu t</w>
lo g
i f
ac ce
vi su
Au th</w>
pro xy</w>
Logg ing</w>
as sign</w>
ELE MENT</w>
s name</w>
Nam ing</w>
th e
Te mp</w>
sk ip</w>
Po si
ph er</w>
an shell</w>
U sage</w>
s l</w>
f unction</w>
Th at</w>
at ors</w>
ro ker</w>
S ort</w>
en umeration</w>
Pr in
se parator</w>
M S</w>
P lu
ind ent</w>
pla y
Pre ferences</w>
con s</w>
Can cel</w>
in vite</w>
EMP TY</w>
IT E</w>
ad apter</w>
Ch ain</w>
S li
lo y
Sh ell</w>
Ap p</w>
Reg i
Rel ation</w>
Sum mary</w>
t ch</w>
is h</w>
g l</w>
per form</w>
NAM ESP
T R</w>
b ound</w>
j b</w>
vi e
Dependen cies</w>
ch ec
z y</w>
Marsh al</w>
er arch
V als</w>
ac ity</w>
Me trics</w>
i tion</w>
Ali as</w>
i ft</w>
G ER</w>
Re al</w>
Lo g
l n</w>
Bio moby</w>
St op</w>
sett ings</w>
FI X</w>
Mar ker</w>
In jec
work ing</w>
po ints</w>
token izer</w>
c at</w>
initi al</w>
Exec ution</w>
Modi fiers</w>
ac cess</w>
po pu
g let
en umer
ma x
W N</w>
H pi</w>
p ol
S orted</w>
T O</w>
Pro b</w>
U SE
Al lowed</w>
J A
S creen</w>
Synta x</w>
H OR
B e</w>
M al
w i
si s</w>
S ql</w>
Au di
r o</w>
Se gment</w>
Pro ps</w>
O p</w>
F ER
b b</w>
d ent</w>
calcul ate</w>
C la
scan pos</w>
tr ic</w>
qu ali
struc ture</w>
ad dr</w>
ava ilable</w>
NAMESP ACE</w>
D oc
Gro ups</w>
Edi table</w>
ack er</w>
ce ment</w>
An aly
War ning</w>
A N</w>
er ts</w>
Re que
en tries</w>
Fin ished</w>
at ype</w>
Mo lder</w>
LE FT</w>
s av
b as
Lo w</w>
b ayes</w>
G RO
deco de</w>
Arg uments</w>
Da o</w>
le c
Sp li
W S
T uple</w>
ign ore</w>
Sav er</w>
re lease</w>
T ile</w>
fa ces</w>
J S
Ar g</w>
Ob server</w>
p stmt</w>
reg round</w>
te mp
Per spective</w>
ATTRIBU TES</w>
d l
c up</w>
ori g</w>
B l
Sub stitu
Pro vi
De vice</w>
u sername</w>
m o</w>
MIN AL</w>
P P
FI E
ap ache</w>
HOR IZ
De sign</w>
resol ved</w>
um my</w>
qu eue</w>
Me an</w>
Recogn ition</w>
Dependen cy</w>
glet on</w>
enti al</w>
Implemen tation</w>
re mote</w>
ro ss</w>
P K
s en
in stall</w>
ma ining</w>
me an</w>
Vi a</w>
j do</w>
Colle ctor</w>
SI G
enco ding</w>
NO MINAL</w>
constra ints</w>
t work</w>
H O
Tr an
U sed</w>
Quali fied</w>
amp les</w>
Compar ator</w>
Cluste rs</w>
VAL U
t d</w>
k it</w>
bo ard</w>
o pt</w>
ma il</w>
gu i</w>
ER IC</w>
D N</w>
be fore</w>
ss u
G ain</w>
S parse</w>
F inal</w>
f ull</w>
METHO D</w>
N ING</w>
Fil ters</w>
An notations</w>
new line</w>
00 00
on ical</w>
at trib</w>
con ver
u ct</w>
Li mit</w>
P tr</w>
e q</w>
IN TER
T yp
Si bling</w>
Sta nd
TA GS</w>
Work bench</w>
visi tor</w>
q name</w>
e s
Bu ttons</w>
sig ned</w>
RES ULT</w>
Acce ssible</w>
f er</w>
A T</w>
Predi cate</w>
Fac ade</w>
Mar t</w>
e m
Re place</w>
Process ors</w>
clu ster</w>
sub set</w>
Rou te</w>
Ch oice</w>
g o
AC K</w>
p lu
D ay</w>
C ES
b ed</w>
Un do</w>
Paren ts</w>
tr ansport</w>
M anag
G HT</w>
Dec o
t sql</w>
Liste ning</w>
Regis ter</w>
pro c</w>
e qual</w>
play er</w>
o s
e ve</w>
d one</w>
el ine</w>
I L
le ted</w>
j ax
Cach ed</w>
M I</w>
tr ans</w>
T LE</w>
F S</w>
en e</w>
Ev ents</w>
n ate</w>
Sta mp</w>
li pse</w>
S ING
M AR
Re ferences</w>
lav or</w>
d ated</w>
C V</w>
g c</w>
SS ING</w>
I E</w>
HORIZ ON
HORIZON TAL</w>
enumer ate</w>
Pre ference</w>
b i</w>
At tribs</w>
ch annel</w>
R an
U sername</w>
Per io
Min imum</w>
f ocus</w>
MI SSING</w>
regis try</w>
Lin ks</w>
s creen</w>
Char s</w>
r i</w>
il l</w>
an ded</w>
Pri vate</w>
recei ve</w>
de ls</w>
Cre ation</w>
fil tered</w>
v s</w>
re st</w>
a ti
t ch
match er</w>
R anges</w>
Te sts</w>
St d</w>
ad ded</w>
Pri vileg
j unit</w>
se tup</w>
p ts</w>
Al t</w>
K ernel</w>
Tra ining</w>
P RI
t ories</w>
gro uper</w>
o ver
PAT H</w>
C UR
Too l
d ay</w>
H ighli
A BLE</w>
M any</w>
pro du
u tor</w>
sh ould</w>
S ol
pe ek</w>
f lag</w>
Ma x
contr ol</w>
tri eve</w>
L EN
las t
Fa iled</w>
Sec tion</w>
s ample</w>
dres den</w>
tu dresden</w>
Ex clusive</w>
flo ws</w>
Visi t</w>
seri alize</w>
to k</w>
AT TR</w>
P layer</w>
w rap</w>
pi x
Pri ority</w>
f u
d in
Fo reground</w>
Work ing</w>
liste ners</w>
Sh eet</w>
un marshaller</w>
de red</w>
ne ss</w>
Compil er</w>
H int</w>
ro le</w>
weigh tx</w>
J ar</w>
ce af</w>
jax b</w>
di rect</w>
com ing</w>
op y</w>
hel p</w>
pro b</w>
OR Y</w>
D one</w>
at trs</w>
V O
ver age</w>
S tri
col lect</w>
rapp ed</w>
C I
P LA
out puts</w>
as on</w>
erarch y</w>
L T</w>
Con st</w>
n et</w>
imp ort</w>
cip al</w>
i sting</w>
Pre view</w>
C T
AC TION</w>
c x</w>
Lin es</w>
TR UE</w>
sh oo
C i
c m</w>
f fix</w>
P aths</w>
qui re</w>
at form</w>
C nt</w>
Rel ative</w>
Sta ti
Comp lete</w>
cal c</w>
S uper</w>
TI TLE</w>
ne x
F E
Exp ected</w>
WOR K
Confi gur
AC K
FIE LD</w>
syn c</w>
AT OR</w>
d o
bu ndle</w>
n a</w>
H orizontal</w>
d ary</w>
i i</w>
c en
Mul tip
f m</w>
In cre
Fac tor</w>
un do</w>
N ature</w>
Char t</w>
Loc ator</w>
St mt</w>
pr e</w>
Di agram</w>
Clas sifiers</w>
nota ted</w>
In et</w>
Th is</w>
N ON</w>
Un known</w>
in clude</w>
SING LE</w>
c ard</w>
E AR</w>
E D
bl es</w>
T T
Perio d</w>
ame work</w>
up per</w>
pa red</w>
Ca use</w>
D y
no red</w>
arg uments</w>
identi fier</w>
Dat alink</w>
Str ings</w>
In clusive</w>
NUM ERIC</w>
li mit</w>
Di ff</w>
hel per</w>
l p</w>
Ho me</w>
su ccess</w>
VER SION</w>
visi ble</w>
PRE FIX</w>
ind ings</w>
f fi
Clas spath</w>
Me dia</w>
j d
F O</w>
di g
in cre
C P</w>
al low</w>
ST AT
D F</w>
T P</w>
sa x</w>
ch anged</w>
ATI ONS</w>
U P
Spli tter</w>
T ou
r ules</w>
Ad ded</w>
t oring</w>
C ri
e ment</w>
VALU ES</w>
avi or</w>
Ar ch
igh b
G e
ST AR
ut down</w>
M ask</w>
sc roll</w>
J oin</w>
p l
d ump</w>
z ed</w>
P U
Stand ard</w>
comp osite</w>
Oper and</w>
G L</w>
Conne ctor</w>
Sp inner</w>
s n
TR AN
Pro p</w>
so le</w>
mar gin</w>
In vite</w>
cor rect</w>
Un marshaller</w>
c ast</w>
f n</w>
clas si
p ed</w>
LO G
CH AR</w>
Gr ammar</w>
comp il
Con tact</w>
ul ar</w>
Contain ment</w>
Sta tes</w>
Re fac
Oper ator</w>
W a
F ind</w>
J R</w>
AS N</w>
te ar</w>
SO AP</w>
f li
re trieve</w>
t oo
al m</w>
Ex it</w>
w f</w>
norm alize</w>
Pro gram</w>
Mon th</w>
mb er
Ne g
Ex ists</w>
n orm</w>
Match er</w>
T ab
comp lete</w>
La un
w s
Un its</w>
O ld</w>
Lev els</w>
ul t
WAR NING</w>
K e
* =</w>
si g</w>
D T
pro bs</w>
l t</w>
CH AN
qu en
D raw
S ink</w>
c ator</w>
Per cent</w>
si de</w>
direc tory</w>
sign ature</w>
Predi ctors</w>
nam ic</w>
d ul
Loo k</w>
cr yp
L abels</w>
m id
Instan ti
re al</w>
S a</w>
m v</w>
comm on</w>
J ECT</w>
Seri es</w>
Loo p</w>
WS DL</w>
ad io</w>
Dis tribu
IC ON</w>
Pro b
tex tu
G B</w>
b atch</w>
M aster</w>
bu ff</w>
or age</w>
d ot</w>
o ql</w>
Lo gin</w>
Se mantic</w>
col umns</w>
n amespaces</w>
LE D</w>
clas sifiers</w>
Bu f</w>
oo d</w>
mo d</w>
A B
ge ts</w>
din ality</w>
UN D</w>
Be anshell</w>
Cli ck</w>
ver bose</w>
pro file</w>
ow ning</w>
As sertion</w>
c d</w>
sc ape</w>
Vie ws</w>
c ket</w>
en abled</w>
cur ren
S qu
dis able</w>
or ter</w>
ch able</w>
NO DE</w>
un c</w>
sq rt</w>
un i
RI GHT</w>
ne ls</w>
ac ro</w>
L ex
Fa il</w>
O B
at om</w>
l ap
n on</w>
sec tion</w>
y e</w>
Refac toring</w>
tt le</w>
SO UR
ST Y
F ree</w>
B ad</w>
str o
C SS</w>
k e
Fi xed</w>
en m</w>
EC T
on ds</w>
EN D</w>
fa iled</w>
il ing</w>
di date</w>
S A</w>
Fil l</w>
seri alizer</w>
d omain</w>
c f</w>
fa ults</w>
p h</w>
O ff
s li
Authenti cation</w>
Cre d
a c</w>
ach ed</w>
re l</w>
Re g</w>
d d</w>
c tion
RE QU
En v</w>
t ds</w>
S tem</w>
visu al</w>
D ER
wh en</w>
O K
now le
b ag</w>
Pas cal</w>
Cla use</w>
e ds</w>
avi g
me di
gri d
PLA IN</w>
In dent</w>
Ar ff</w>
adi us</w>
V AL</w>
de c</w>
M A</w>
DE D</w>
AR Y</w>
AN D</w>
w idget</w>
arg ument</w>
Al erts</w>
s m
fi xed</w>
Z ip</w>
La zy</w>
pack et</w>
V K</w>
h igh</w>
P UT</w>
In clude</w>
M is
TE ST</w>
RA Y</w>
C le
fi able</w>
T wo</w>
gener ator</w>
clas ses</w>
Dis cre
oo m</w>
ti o</w>
t yp
re g</w>
AT ED</w>
Max imum</w>
Pix el</w>
b i
Provi ders</w>
De fin
Ca ret</w>
it ing</w>
constr uctor</w>
Y ear</w>
G ame</w>
r p</w>
lo wer</w>
Th e</w>
M AT
Ci pher</w>
un e</w>
Pres ent</w>
r l</w>
up lic
m ask</w>
evalu ation</w>
G UI</w>
o red</w>
Fa ilure</w>
N LS</w>
Clo sed</w>
c r</w>
I ter</w>
p w</w>
le af</w>
l o</w>
x ture</w>
PO SI
Li fecycle</w>
I IO</w>
iz ard</w>
Dig est</w>
e mit</w>
Pl atform</w>
match ed</w>
ne sted</w>
exp and</w>
ble ms</w>
JS ON</w>
cluste rer</w>
y y</w>
Po st</w>
men tal</w>
I cons</w>
Cl one</w>
aliz able</w>
Assign ment</w>
Prin cipal</w>
v m</w>
in t
N T</w>
Ori g
textu i</w>
Initi al</w>
tu red</w>
lo cale</w>
r v</w>
clu ded</w>
Syn c</w>
i st</w>
j s</w>
me as
er ing</w>
la red</w>
B Y</w>
Match es</w>
vi a</w>
EX TEN
c ated</w>
R L</w>
Reg ex</w>
b io
au th</w>
Ac tiv
clo sing</w>
trans form</w>
boo k</w>
In sn</w>
al th</w>
A ck</w>
C LO
W S</w>
Fil tered</w>
Tr acker</w>
Ca st</w>
Can onical</w>
CON T
D uration</w>
Sh ad
Y EAR</w>
di m</w>
Hi erarchy</w>
IN FO</w>
g x</w>
I AST</w>
valid ator</w>
cu stom</w>
T ur
pk g</w>
M N</w>
M EN
li er</w>
Pol y
h older</w>
C AN
token s</w>
Ad min</w>
im g</w>
ver s</w>
E C</w>
S end</w>
t ment</w>
re p</w>
Tr ansport</w>
nowle dge</w>
Ad ditional</w>
Sen sor</w>
last pos</w>
O QL</w>
c enter</w>
s ons</w>
Pe er</w>
D o</w>
sk top</w>
con stan
WORK FLOW</w>
Implemen ted</w>
trans late</w>
In ner</w>
o sition</w>
ex tent</w>
G IN</w>
re que
Su c
G TH</w>
ti d</w>
P T</w>
V AR
Comm it</w>
In di
a tes</w>
O UT</w>
Audi o</w>
ild card</w>
TI ME</w>
LI ST</w>
pre cision</w>
s tri
al le
TA BLE</w>
Y ES</w>
rea k
per cent</w>
S n
E x</w>
se l</w>
Pa int</w>
s ocket</w>
I MP
ri dge</w>
Re por
Pre pared</w>
Ne twork</w>
x la</w>
LEN GTH</w>
j ar</w>
ob s</w>
v n</w>
ber nate</w>
c i</w>
li ed</w>
f p</w>
C enter</w>
Mo dels</w>
Sw itch</w>
las h</w>
Co ok
war e</w>
M an
Wi th
la b</w>
H PI</w>
P ORT</w>
lo aded</w>
r ty</w>
Col our</w>
O ID</w>
lic it</w>
j sw</w>
b a</w>
Can vas</w>
str ation</w>
Exten ded</w>
j o</w>
re validate</w>
mo st</w>
clas sname</w>
TI C
In puts</w>
sh ift</w>
D ING</w>
P LU
e ed</w>
Substitu te</w>
d c</w>
Beh avior</w>
l ers</w>
Edi ts</w>
PA RE
Seri al</w>
Stati stics</w>
Parti tion</w>
IN FIN
ren der</w>
F lavor</w>
Assign able</w>
n c</w>
ction ary</w>
Pro po
Bu g</w>
Inde xes</w>
E N</w>
s il
read s</w>
Trans former</w>
w as</w>
Ver tical</w>
ex c</w>
Del im
Sub scri
Car dinality</w>
f g</w>
E lem</w>
SOUR CE</w>
disp atch</w>
for ce</w>
SC RI
ec lipse</w>
pri mary</w>
Col s</w>
V ER</w>
ver y</w>
id l</w>
mi se</w>
z er</w>
exp ect</w>
top ic</w>
D rag</w>
mber ship</w>
sc an</w>
ed ges</w>
Trans lator</w>
Rela tional</w>
Fin der</w>
ig n</w>
ord inal</w>
r yp
Instanti ation</w>
co ver</w>
Sche me</w>
mid d
D en
Fe atures</w>
A gg
STAR T</w>
m id</w>
Cli c
Re moved</w>
Ar c</w>
ms gs</w>
Neg ative</w>
Comp ound</w>
char ac
io e</w>
Al pha</w>
A GE</w>
X S</w>
an g</w>
b order</w>
I ssu
Su ccess</w>
Con version</w>
Er r</w>
c v</w>
LI C
ac h</w>
Sp an</w>
pe er</w>
D rop</w>
n r</w>
bo ttom</w>
Orig inal</w>
st ats</w>
po licy</w>
read y</w>
m app
He alth</w>
um e</w>
GRO UP</w>
Si g</w>
E L</w>
po pup</w>
as es</w>
Configur able</w>
res sions</w>
ffe ren
ay s</w>
OR DER</w>
Rec ent</w>
ur al</w>
th en</w>
c nt</w>
inter val</w>
x s</w>
PRE FER
M acro</w>
il t</w>
fr amework</w>
s r</w>
In vert</w>
ter m</w>
a x</w>
CO LO
ta bs</w>
is on</w>
D ummy</w>
ac ts</w>
sav ed</w>
ad ding</w>
ffi ci
sp ec</w>
r b</w>
g ra
Forwar ds</w>
Run s</w>
SU B
tr o
UT F</w>
da tes</w>
Tou chable</w>
am es</w>
R end
st om
grid width</w>
INFIN ITY</w>
Descri ptions</w>
quo ted</w>
fil ters</w>
t t</w>
Tool kit</w>
wor ker</w>
Fac t</w>
sin gleton</w>
comple x</w>
PAR AM</w>
ans wer</w>
B loc
U SE</w>
Sh ared</w>
as ets</w>
stro y</w>
Sta t</w>
sil on</w>
d oc
s a</w>
ren derer</w>
j u
Lo c</w>
Uni que</w>
co st</w>
tl et</w>
GE T</w>
STAT US</w>
th s</w>
X Y</w>
Defini tions</w>
En tr
me mbers</w>
M D</w>
ex isting</w>
D fa</w>
sv g</w>
H igh</w>
Con sole</w>
R GB</w>
pro blem</w>
v y</w>
Ad ap
Exp i
D o
at ta
St ub</w>
Ch anges</w>
ap i</w>
c ached</w>
Match ing</w>
re moved</w>
if est</w>
ce ptions</w>
mi ze</w>
USE R</w>
war d</w>
gro ups</w>
Inte n
Seri alizer</w>
/ =</w>
H idden</w>
D s</w>
modi fiers</w>
co e
Key word</w>
comp ar
Ser vices</w>
Co pi
ri tory</w>
Au to
rep ly</w>
st d</w>
M ON
ti st</w>
serv ant</w>
Ad dr</w>
Mal formed</w>
p res
me tadata</w>
di tions</w>
d en
Di rect</w>
JD O</w>
B al
x n</w>
G O
In sert</w>
c ations</w>
d ou
nex p
spec t</w>
CO L
au to</w>
d k</w>
DO U
Norm al</w>
mul tip
Lex er</w>
a a</w>
O P</w>
g i
S k
g ame</w>
VAL ID</w>
I F</w>
Star ted</w>
lin es</w>
Con f</w>
defin ed</w>
R ol
meas ure</w>
Resol ved</w>
Conne ct</w>
nexp ected</w>
extr a</w>
pla cement</w>
um ul
U UID</w>
G EN
P red</w>
F AL
f l</w>
B indings</w>
su per
d ap</w>
W E
co ls</w>
Exec utor</w>
spec tion</w>
ca use</w>
Re ad
Exten sions</w>
M P</w>
be ans</w>
Valid ate</w>
str a
tif acts</w>
lb ar</w>
C reated</w>
B roker</w>
g er
Char set</w>
Hi bernate</w>
r and</w>
XS D</w>
EXP ECT
ser s</w>
FO L
Chec k
c oo
P or
produ ct</w>
UN K
G u
JD BC</w>
t me</w>
EXPECT ATIONS</w>
ac y</w>
Initi alizer</w>
An chor</w>
fin e</w>
B IN
DOU BLE</w>
Sc an
ex ternal</w>
Op tional</w>
K ie</w>
t xt</w>
m ine</w>
P P</w>
B oun
S G</w>
r ing</w>
Sec ond</w>
lo ts</w>
pro po
Typ ed</w>
ro ols</w>
K nowledge</w>
C ross</w>
NU M</w>
D ot</w>
i rs</w>
CON FI
tim es</w>
Vari ables</w>
P TION</w>
B lan
w c</w>
Extr a</w>
Ta il</w>
Dy namic</w>
r r</w>
Defin ed</w>
si st</w>
ce stor</w>
e set</w>
pa ir</w>
ang le</w>
d ence</w>
Desc r</w>
Itera ble</w>
popu late</w>
COLO R</w>
a v</w>
e ded</w>
g on</w>
defin e</w>
Agg reg
go ing</w>
n i</w>
St u
Vie w
vie wer</w>
H yp
dep enden
NO WN</w>
Me mbers</w>
u sage</w>
c ap</w>
si m</w>
fac ade</w>
Qu o
ad oc</w>
Enco ded</w>
FAL SE</w>
Reg ression</w>
tr ac
k ernel</w>
Ca n</w>
Exp ort</w>
S lot</w>
rela tive</w>
re quired</w>
Serv ant</w>
ob jects</w>
In fos</w>
jec tion</w>
Po pu
Tr ans</w>
D om</w>
PREFER RED</w>
W EST</w>
Associ ation</w>
Posi tions</w>
G ui</w>
N amespaces</w>
AUT H
sup ports</w>
ce l
I F
in ed</w>
si ty</w>
OR E</w>
H it</w>
CO LU
no w</w>
SER VI
Tr ust</w>
cr y
an k</w>
Ra tio</w>
b inary</w>
ag ent</w>
EN TI
S elf</w>
Confi rm</w>
resol ver</w>
D I</w>
Prob ability</w>
p si</w>
c mp</w>
bu f
Struc tured</w>
Rend ering</w>
L ON
App lic
x sd</w>
ra ce</w>
ord in
Work er</w>
De leted</w>
et te</w>
Tr ack</w>
CON N
SC RO
Shad ow</w>
P C</w>
invo cation</w>
EXTEN SION</w>
coo k
rela tional</w>
W C</w>
P ending</w>
de ter
c reated</w>
St y
ta gs</w>
T ables</w>
n f</w>
FE AT
ou d</w>
tur al</w>
d om</w>
SS L</w>
J son</w>
Wor k</w>
tr ack</w>
im ation</w>
co des</w>
Meas ures</w>
La ter</w>
C T</w>
I t</w>
Dec lared</w>
W izard</w>
Auth ority</w>
te ments</w>
am ma</w>
mb ols</w>
Resol ve</w>
p ool</w>
br an
Re maining</w>
Be gin</w>
lo cal
Mar gin</w>
inter face</w>
Arch ive</w>
Res ult
PK G</w>
PRO P</w>
A n</w>
oc k
plu gins</w>
op s</w>
Modi fy</w>
Al ter
t m</w>
BU TT
T ds</w>
fli ct</w>
Pre vious</w>
Multip le</w>
ac c</w>
al l
al ette</w>
In to</w>
me tric</w>
ite space</w>
G ap</w>
dat alink</w>
m u
RE AD</w>
tr an</w>
UNK NOWN</w>
Tri gger</w>
T id</w>
F oo</w>
an notations</w>
Tran si
m c</w>
N avig
ass oci
app lication</w>
Conne ctions</w>
Work flows</w>
constan t</w>
E OF</w>
M L
l yp
CES S</w>
Cur ve</w>
we b</w>
PU B
Persiste nt</w>
instan ti
pu bl
Bas eline</w>
medi ate</w>
RE L
dl link</w>
sp an</w>
v b</w>
sy m</w>
Gener al</w>
Ne ighb
pre cated</w>
Struc tural</w>
Process ing</w>
di men
ver na</w>
acce pts</w>
b l</w>
Ch unk</w>
v ector</w>
MO DE</w>
IN DE
fe tch</w>
comp onents</w>
pas s</w>
d n</w>
CO DE</w>
G ES</w>
par ts</w>
Regi stration</w>
Si de</w>
an is
d t</w>
mp loy
B ASE</w>
f ol
s y</w>
Di rection</w>
S pre
un marshal</w>
T ATION</w>
de tails</w>
Al ert</w>
g o</w>
ti al</w>
fini shed</w>
ad sheet</w>
AR RAY</w>
ver ity</w>
A DER</w>
E M</w>
en sure</w>
b and</w>
Pu bl
Spre adsheet</w>
g en
o sed</w>
av adoc</w>
Visi bility</w>
f older</w>
w rapped</w>
pro venance</w>
comp ile</w>
BUTT ON</w>
Trans fer</w>
cry ption</w>
Entr opy</w>
Dig its</w>
i m</w>
S m
ve red</w>
as ed</w>
R adio</w>
reg ion</w>
p table</w>
z one</w>
d river</w>
c ri
HT TP</w>
C U
DI RE
res ources</w>
j if</w>
ta in</w>
p d</w>
TI ONS</w>
ul eset</w>
Co ver</w>
sup port</w>
tl y</w>
sen der</w>
Privileg e</w>
No tify</w>
form ance</w>
St orage</w>
A spect</w>
end point</w>
enco ded</w>
Delim iter</w>
Cu t</w>
le ave</w>
J st</w>
Ac tual</w>
ar row</w>
ch er</w>
PUB LI
e m</w>
IN VALID</w>
W idget</w>
ex port</w>
ack ing</w>
Tab bed</w>
Pro blems</w>
at al</w>
S dp</w>
FI L
sche dule</w>
AM E
M AL</w>
o vy</w>
ac tor</w>
s able</w>
bran ch</w>
I TE
Highli ght</w>
Dat atype</w>
Re si
de li
F LA
av es</w>
TRAN S
In tent</w>
Oc cur
Pro to
te sts</w>
pu tter</w>
at able</w>
W ID
Res tri
se gment</w>
teri a</w>
Mar k
Vi able</w>
SIG N</w>
O k</w>
oriz ation</w>
EN CE</w>
COLU MN</w>
evalu ator</w>
s tic</w>
s x</w>
o ff
Ac cept</w>
an nels</w>
Analy sis</w>
IN TE
ag no
M F</w>
V ars</w>
Pack ages</w>
F re
D eri
Be ans</w>
sc al
V is</w>
Rec ords</w>
NOR TH</w>
CO UN
P G</w>
Di ctionary</w>
V ED</w>
Ca t
exp i
Predi ction</w>
b f</w>
SH A</w>
Di rty</w>
P AS
Cook ie</w>
W ait</w>
Fi x</w>
DA Y</w>
i fier</w>
Repor ter</w>
s lot</w>
reg i
SE CON
en vironment</w>
Par ts</w>
CL U
en ed</w>
F AC
in coming</w>
W IT
sy mbol</w>
i se</w>
i sh
tion ship</w>
a i</w>
t ore</w>
Forwar d</w>
S C</w>
d rop</w>
De precated</w>
Plu gins</w>
deter mine</w>
Re l</w>
Com ments</w>
CAN CE
g re
inter faces</w>
Associ ator</w>
Chec ker</w>
r anges</w>
De faults</w>
Plu s</w>
Comp ati
al ling</w>
liste ne
SA HPI</w>
ON LY</w>
m l
B R
Sta r</w>
B ands</w>
quo te</w>
K S</w>
FI LL</w>
RE F</w>
D B
g gle</w>
ar se</w>
uplic ate</w>
te n</w>
sh utdown</w>
rol lback</w>
ne mon
Confi gure</w>
ti cle</w>
b d</w>
Me mbership</w>
SH ORT</w>
se lector</w>
O T</w>
se c</w>
can didate</w>
S q</w>
li b</w>
no tification</w>
LO AD</w>
ca ret</w>
y load</w>
f ree</w>
de sktop</w>
sec urity</w>
ff ec
mer ged</w>
AP P
LOC K</w>
Ren der</w>
ti mer</w>
Sol r</w>
midd le</w>
Dec or
c er
X A</w>
T x</w>
Gr an
le ss</w>
Pres entation</w>
j d</w>
p m</w>
Dimen sions</w>
sub scri
JA X
R E</w>
pr une</w>
C A</w>
ser vices</w>
Re ason</w>
S rc</w>
f old</w>
ex ec</w>
Ho sts</w>
Mo d
a rest</w>
j ust</w>
B reak
p ag
r hs</w>
so ap</w>
anis m</w>
lo b</w>
v is</w>
ATI VE</w>
Chec ked</w>
Comp are</w>
OB JECT</w>
ag ic</w>
mploy ee</w>
Recei ver</w>
hi st</w>
S P</w>
Enco der</w>
pre fs</w>
Ter ritory</w>
co ords</w>
MO BY</w>
Scan ner</w>
o mize</w>
Blan k</w>
th reshold</w>
am mo</w>
ar r</w>
O UT
o ws</w>
de fini
mis sions</w>
With out</w>
R adius</w>
En ac
stan ces</w>
dig est</w>
Squ ared</w>
A sync</w>
Clic ked</w>
IN V
P S</w>
C RE
Seri alizable</w>
REQU EST</w>
am b
en c</w>
NUMB ER</w>
KE N</w>
Contain ed</w>
Com pu
SP ACE</w>
Co ords</w>
th ing</w>
Suc cess
SERVI CE</w>
re alm</w>
ST ORE</w>
Re st</w>
n b</w>
ta bles</w>
y ear</w>
Bo ttom</w>
b v</w>
ER R</w>
ta tions</w>
p aths</w>
Cred ential</w>
gu e
Laun ch</w>
Work space</w>
Direc tive</w>
st y
W ildcard</w>
L ab</w>
F old</w>
Exp anded</w>
c er</w>
Re pe
wh ere</w>
Quali fier</w>
compil er</w>
AUTH OR</w>
os en</w>
Gener ated</w>
an up</w>
c umul
lev els</w>
S SION</w>
Loc alized</w>
SO UT
Copi es</w>
Resol ution</w>
I g
fac et</w>
Exec ute</w>
C TION</w>
WID TH</w>
time stamp</w>
a rea</w>
Injec tor</w>
Fin ger
Ran king</w>
Lin ear</w>
thro w
Sche dul
Su per
Or g</w>
AL I
S ur
ce ptor</w>
s v</w>
a k</w>
W R
ro ute</w>
classi fy</w>
atch er</w>
Cap acity</w>
DT D</w>
TO KEN</w>
op code</w>
L AST</w>
la t</w>
recei ver</w>
j or</w>
Pas s</w>
MA T</w>
G U
constra int</w>
h idden</w>
Ph ase</w>
ba os</w>
S H</w>
m es</w>
b roker</w>
FOR MAT</w>
mon th</w>
Run ning</w>
B ORDER</w>
quali fied</w>
parti tion</w>
Rep res
En cryption</w>
he ap</w>
Injec tion</w>
Le aves</w>
E qui
h eri
res p</w>
lo cate</w>
At m</w>
v el
Tra iling</w>
our s</w>
P re</w>
co mbo</w>
ta ge</w>
ad ap
incre ment</w>
lyp h</w>
ac ing</w>
lo rer</w>
E QU
pre mise</w>
TI ME
CH EC
on dary</w>
CANCE L</w>
An notated</w>
clu des</w>
Lo aded</w>
Del ay</w>
it ter</w>
PLU GIN</w>
po w</w>
St re
w a
declar ation</w>
Contain ing</w>
Cal cul
Fa ult</w>
Mapp er</w>
Up dated</w>
hi story</w>
Su ffix</w>
weigh ty</w>
Comple ted</w>
INTE GER</w>
ep silon</w>
process ed</w>
l abs</w>
De fs</w>
de vice</w>
B L
M AN
l i</w>
c and
Ca ndle</w>
De te
SOUT H</w>
Col ors</w>
Ig nored</w>
DA P</w>
re vision</w>
mar ker</w>
I p</w>
jj matched</w>
form atter</w>
fin ish</w>
W rap</w>
Li sp</w>
Bal an
In sts</w>
cli p</w>
sy s</w>
Pa irs</w>
v t</w>
Un signed</w>
z ip</w>
ec h</w>
Off sets</w>
Doc s</w>
Wh itespace</w>
p name</w>
ch unk</w>
SE VER
bio sim</w>
Re s</w>
trac labs</w>
TR ACE</w>
r gb</w>
INDE X</w>
C en
DE SCRI
cand le</w>
ro u
F LO
comple tion</w>
pre ter</w>
00 1</w>
Hyp er
con t</w>
Cle ar</w>
r and
Enti ties</w>
a u</w>
de sc
an aly
up dated</w>
i ze</w>
AP I</w>
i fi
Wh en</w>
U i</w>
d eri
C tx</w>
de stroy</w>
Ke ttle</w>
Dat asets</w>
DE LE
pro to
gr aphics</w>
View port</w>
p a</w>
ex ample</w>
di rection</w>
e age</w>
ed back</w>
ch ooser</w>
y ing</w>
Mar k</w>
back ground</w>
E mail</w>
E V
u fl</w>
ob server</w>
F u
la un
INV ITE</w>
n l</w>
Me ans</w>
w l</w>
nemon ic</w>
h ighli
Op codes</w>
A sc
su gg
Pix els</w>
G r</w>
N AL</w>
Ex tent</w>
OP ER
B X</w>
g d</w>
h i</w>
is tic</w>
on ce</w>
AC H
ap lab</w>
Sp eed</w>
R e</w>
U uid</w>
Me tric</w>
CONT ENT</w>
tl ine</w>
c k
MO DE
ws dl</w>
P E
P ACK
te ln</w>
In tro
pre ds</w>
lo ok</w>
modi fy</w>
mis c</w>
Propo sal</w>
re name</w>
JAX B</w>
l hs</w>
R aster</w>
AD D
bas ic</w>
FIL TER</w>
A X
ce ts</w>
Re tri
W H
TI ES</w>
Pro c</w>
LON G</w>
Cl oud</w>
re pe
Fe el</w>
process ors</w>
R U
f name</w>
So ft</w>
se m
PARE N</w>
G ED</w>
O ver</w>
Dis abled</w>
s q</w>
k session</w>
JA V
t ate</w>
res tore</w>
w ill</w>
sche me</w>
Cu stom
U ses</w>
me dia</w>
sc ore</w>
Manag ement</w>
AT T</w>
S M
C entr
Hand ling</w>
ack s</w>
ali di
dres ses</w>
C N</w>
Sc rol
In line</w>
comp ound</w>
un ing</w>
ter min
U M</w>
T abs</w>
L DAP</w>
lo gin</w>
Draw able</w>
f t
Th reads</w>
Pre cision</w>
Ar r</w>
on y
f b</w>
Te mp
al gorithm</w>
s ame</w>
Se c</w>
W F</w>
VI E
Syn chron
h orizontal</w>
li ter
RO OT</w>
HE ADER</w>
Se tup</w>
d uration</w>
Fol low</w>
alidi ty</w>
b ad</w>
lin ks</w>
p r</w>
fac tor</w>
X ML
ul ly</w>
quali fier</w>
D LE</w>
Exten ds</w>
ad min</w>
SH O
re maining</w>
a a
in g
le ased</w>
PA GE</w>
Seri alized</w>
exp anded</w>
il y</w>
Speci al</w>
valid ation</w>
pri ority</w>
mo l</w>
AM E</w>
sin gle</w>
amb da</w>
pix el</w>
Ac cessor</w>
S o</w>
AP PRO
shoo tist</w>
e v</w>
En code</w>
S a
ER O</w>
au di
ATI C</w>
SE D</w>
A mm
an ts</w>
MA P</w>
W A
co ll</w>
: :</w>
v ance</w>
Amm o</w>
Up load</w>
COM MENT</w>
Li sts</w>
pro vi
DI SP
fi le
s val</w>
J i</w>
S vn</w>
ter ate</w>
i sion</w>
Gro ovy</w>
G RE
ow n</w>
Uni code</w>
H ints</w>
E m
Exp lorer</w>
Ar row</w>
00 0</w>
shoo tme</w>
m y
Visu alize</w>
O U</w>
Inter faces</w>
n d</w>
M X</w>
Im ages</w>
COUN T</w>
uni que</w>
as sign
con sequence</w>
STY LE</w>
sub stitu
orig in</w>
li brary</w>
O L</w>
V oid</w>
B ind</w>
I ST
p tr</w>
j arg</w>
L L
fr agment</w>
Op tim
seri es</w>
L dap</w>
Tr u
l abels</w>
SELEC TION</w>
int cut</w>
At trs</w>
Indi cator</w>
ne eds</w>
For mul
Wor ds</w>
Ow ning</w>
Hand lers</w>
SO L
can vas</w>
tr an
auth enti
su ffix</w>
z ero</w>
ste red</w>
c lean</w>
POSI TIVE</w>
MO VE</w>
An cestor</w>
AX IS</w>
S co
G ra
G re
Wh ite</w>
in de
Repres entation</w>
loc ator</w>
P or</w>
ON AL</w>
o le</w>
Log ical</w>
s ent</w>
I M
Applic able</w>
alle l</w>
feren ced</w>
PAR AME
FOR M
consum er</w>
eri es</w>
Z ERO</w>
ag ged</w>
declar ing</w>
ti p</w>
Predi ctions</w>
Car d</w>
con cat</w>
d raw
& =</w>
ke ep</w>
Re leased</w>
Ref resh</w>
ma ted</w>
or t
Ma ke</w>
B lob</w>
Auth orization</w>
mo pp</w>
e mail</w>
av g</w>
b ers</w>
DO WN</w>
FI R
V e
vo ur
un its</w>
Th an</w>
M id
GEN ER
f i</w>
ap s</w>
for ward</w>
n e</w>
Poly gon</w>
ne g
VI SI
re ign</w>
no m</w>
BO TH</w>
i ck</w>
TR Y</w>
un ctions</w>
STR U
j desktop</w>
APPRO VE</w>
he aders</w>
ag g
CONN EC
J obs</w>
Trans late</w>
dec imal</w>
Enac tment</w>
nam ed</w>
BIN ARY</w>
BY TE</w>
00 01</w>
trans lator</w>
ig nored</w>
Marsh aller</w>
Initi alized</w>
COMP ON
an notated</w>
re tur
Se par
U nexpected</w>
SS F</w>
Loc al
Formul a</w>
b tn</w>
h ash
Speci fier</w>
atter ns</w>
E mployee</w>
mer it</w>
Ti ck</w>
h ex</w>
f o
c seq</w>
teg ories</w>
ne ed</w>
O ther</w>
Pol ling</w>
J N
loy ment</w>
Loc ked</w>
tr acking</w>
J avadoc</w>
Incre mental</w>
ffici ents</w>
Ver tex</w>
star ting</w>
c at
Contain s</w>
e ar
ten tial</w>
D rools</w>
char set</w>
x path</w>
Un marshal</w>
CO L</w>
e f</w>
f act</w>
w rapper</w>
Distribu tions</w>
M B
predi cted</w>
Dow n
D U
S amples</w>
scan ner</w>
pa que</w>
Norm alize</w>
contr oller</w>
Cli p</w>
lec tive</w>
Ad ju
re rs</w>
quen cy</w>
tr l</w>
MON TH</w>
C raw
Ali ve</w>
un lock</w>
bl ack</w>
r d</w>
T T</w>
it ted</w>
FOR M</w>
im ate</w>
PAS S
te able</w>
n out</w>
Ori entation</w>
Manag ed</w>
r m
Th e
Sli ce</w>
SIG N
g ments</w>
at ted</w>
P H
Sli der</w>
Highli gh
UR ES</w>
me ssages</w>
SS O</w>
p q</w>
mp les</w>
ari es</w>
m k
wi re</w>
l b</w>
cryp ted</w>
F unc</w>
Liter als</w>
ch ain</w>
M nemonic</w>
tch a</w>
sta t</w>
Deco der</w>
Sec ure</w>
Al low</w>
gr ph</w>
En umer
Popu lation</w>
Le g
pix els</w>
Utili ty</w>
un ity</w>
S CH
Bas ed</w>
R shell</w>
z oom</w>
pro gram</w>
Re write</w>
No tes</w>
i ch</w>
str ings</w>
enti als</w>
po st
D n</w>
re ason</w>
LE S</w>
Edi ting</w>
e ss</w>
AD D</w>
Seri alization</w>
Vari ance</w>
D T</w>
G P</w>
Assign ments</w>
V alidity</w>
Bu ilt</w>
FIR ST</w>
M SG</w>
en closing</w>
A V
a head</w>
si red</w>
parti al</w>
M M</w>
An sw
Ti t
n a
Modi fication</w>
St ored</w>
TIC AL</w>
ro o
J S</w>
UN I
v p</w>
n j</w>
serv able</w>
Ex ample</w>
I S
gue ssing</w>
AC C</w>
lo gg
Sec onds</w>
Sh ould</w>
Incre ment</w>
FF FF
x sp</w>
Con flict</w>
Ab s</w>
defini tion</w>
c o</w>
Conne cted</w>
PACK AGE</w>
am ily</w>
se ek</w>
per spective</w>
B reak</w>
Ne eded</w>
Con vert</w>
OR ITY</w>
COMP LE
pre f</w>
N N</w>
Li te</w>
LOG GER</w>
Discre te</w>
dimen sion</w>
z es</w>
ffff ff
Pr uning</w>
n n</w>
tri gger</w>
Ref lective</w>
sa fe</w>
IG HT</w>
p ment</w>
as ks</w>
A f
ev ents</w>
po inter</w>
Pri or</w>
Se arch
m f</w>
M UL
predi ctions</w>
Pri ors</w>
descri ptors</w>
in te
la ted</w>
Li b</w>
In coming</w>
M u
fa ilure</w>
ber ty</w>
Transi ent</w>
Wri table</w>
P ages</w>
Rela tionship</w>
an ti
E l
Cer ts</w>
am age</w>
F s</w>
Discre ti
dat atype</w>
di fferen
de leted</w>
b in</w>
modi fiable</w>
ver sal</w>
c name</w>
mp t</w>
e a</w>
con d</w>
de sign</w>
on ly</w>
Break point</w>
t xn</w>
li berty</w>
SEVER E</w>
T i</w>
Out putter</w>
E qu
Sche dule</w>
WIT H</w>
bl oc
R ename</w>
wri teln</w>
j son</w>
en der</w>
f is</w>
ffec tive</w>
y te
^ =</w>
reque stor</w>
Rec ur
c ar
PRI ORITY</w>
end ent</w>
c stmt</w>
Fa vour
A u</w>
Co ordin
st al
der ation</w>
O FF
st name</w>
oo s</w>
St op
chec k
ish er</w>
ca tes</w>
LA BE
Finger print</w>
back tracking</w>
F ar</w>
fu l</w>
Expi res</w>
Gener ation</w>
Fi xture</w>
SA ML</w>
Gr aph
De fn</w>
d i</w>
As set</w>
Sec ret</w>
x ml
g oo
ho me</w>
Re q</w>
Dig it</w>
vi rtual</w>
FLA G</w>
Comp osition</w>
J B</w>
UR N</w>
v r</w>
f dl</w>
re c</w>
p ane</w>
A head</w>
Se qu
ta b
G MF</w>
om ic</w>
me m</w>
ifi c
FI ER</w>
N fa</w>
ur ls</w>
Ver ify</w>
M agic</w>
cook ie</w>
i terate</w>
Re ports</w>
re du
predi ctor</w>
Mul ti
Sh ift</w>
ac ti
NE W</w>
TER MIN
S OR</w>
cen tage</w>
T A</w>
Sh oo
in c</w>
Mis match</w>
Cre ator</w>
c fg</w>
Deri ved</w>
E P</w>
g n</w>
w b</w>
r a</w>
d ges</w>
s als</w>
b p</w>
Per formance</w>
Ex ceptions</w>
i pi
Distribu ted</w>
du al</w>
Re tur
p f</w>
De bu
Pr inter</w>
A I
stra tegy</w>
sli ce</w>
S cal
Occur s</w>
charac ters</w>
R et</w>
SELEC TED</w>
Se p</w>
as s</w>
c entr
spec i
En able</w>
cal endar</w>
Wh ere</w>
L b</w>
jj state</w>
sh ared</w>
liter al</w>
Reque sted</w>
dec l</w>
Sy mbols</w>
SCRO LL</w>
norm al</w>
ali se</w>
pri mitive</w>
ab e
ST ATIC</w>
VIE W</w>
An gle</w>
So aplab</w>
Re set</w>
Ori gin</w>
Po intcut</w>
i ps</w>
Activ ation</w>
Hyper link</w>
En ter</w>
Answ er</w>
Ver bose</w>
U sing</w>
in der</w>
cap acity</w>
C S
com m</w>
r ase</w>
de p</w>
as p
Pre c</w>
Analy zer</w>
c ross</w>
Subscri ption</w>
FLO AT</w>
lo ad
Mo d</w>
Li ve</w>
Lo ading</w>
sum mary</w>
W rapped</w>
SE PAR
cer tificate</w>
AN NO
Posi tive</w>
Sin gleton</w>
o d</w>
P adding</w>
ed u</w>
SU PP
In spection</w>
li fecycle</w>
par sed</w>
ne g</w>
Z oom</w>
OUT PUT</w>
su c
L AN
Pre v</w>
No tation</w>
Ne arest</w>
Alter native</w>
SY B
Issu ed</w>
st ored</w>
RE SS</w>
Sig nal</w>
t re
LA Y</w>
d ummy</w>
De c</w>
Tar gets</w>
Auth or</w>
ap on</w>
fi t</w>
Co mb
Con ditional</w>
an o</w>
b ye</w>
el t</w>
Af fine</w>
conver ter</w>
v an
gi ven</w>
F R
teri zed</w>
se tter</w>
d y
ar ing</w>
V cs</w>
Mon it
H our</w>
ce led</w>
Y et</w>
Ter minal</w>
B it
SV N
L ang</w>
IN PUT</w>
Pu sh</w>
J O
al is
B E</w>
db g</w>
VER TICAL</w>
j tf</w>
on ed</w>
e mp
FA I
Cal lable</w>
Pre fs</w>
SER VER</w>
fi gure</w>
Por tlet</w>
i ted</w>
Ar tifacts</w>
ver tex</w>
weigh ted</w>
n v</w>
g p</w>
B ridge</w>
Di m</w>
H ar
Ac cu</w>
Chec king</w>
W r
um entation</w>
Clas si
Ap pro
ser ted</w>
at h
CLO SE</w>
j o
P alette</w>
O paque</w>
Se verity</w>
per mission</w>
ec tors</w>
MODE L</w>
Bi o</w>
di rs</w>
ter ing</w>
rup t</w>
oper ator</w>
exp ec
Pla ce</w>
stri p</w>
re ment</w>
e scape</w>
Mapp ings</w>
cop es</w>
m il
C DATA</w>
S K
PROPER TIES</w>
ic k
Or dered</w>
r int</w>
u ses</w>
ony m
as m</w>
le sheet</w>
Clo b</w>
FOL LOW</w>
Stu ff</w>
NOR MAL</w>
P GP</w>
DI R</w>
Man ifest</w>
Sequ ential</w>
O M</w>
C R
L F</w>
si tive</w>
dou b</w>
FO UND</w>
p board</w>
p p
FEAT URES</w>
rand omize</w>
P R
ol d
B in</w>
oo se</w>
pa ren
O pt</w>
E dges</w>
M gr</w>
vari ance</w>
clas s
Tri m</w>
C ASE</w>
iz ation</w>
v al
T oo</w>
Cal led</w>
Scri ptable</w>
e ss
ic map</w>
DE FIN
C C</w>
Pa d</w>
ran k</w>
tch ed</w>
Se tter</w>
ver tical</w>
r x</w>
y s</w>
jj new</w>
u r</w>
pri or</w>
cat alog</w>
ag ing</w>
H oo
P A</w>
V ec</w>
onym ous</w>
in str
C L</w>
Identi fied</w>
RE FER
Cal c</w>
B ye</w>
AL IG
Ob servable</w>
ma s</w>
D uplicate</w>
jd bc</w>
d m</w>
po tential</w>
Visu alizer</w>
Retri eval</w>
N orm</w>
M e</w>
SER T</w>
C ES</w>
uc tions</w>
Inter ceptor</w>
No m</w>
Speci fication</w>
eng e</w>
Contr ols</w>
too l
t wo</w>
or able</w>
We ka</w>
ar c</w>
V ol
ific ance</w>
Sh utdown</w>
R AN
ac tional</w>
BU N
LIN KS</w>
De leg
conne ctor</w>
confi rm</w>
Bu ild
SEPAR ATOR</w>
e sted</w>
wh ite</w>
LE R</w>
Cat alog</w>
B AR</w>
Fe edback</w>
p ted</w>
mo lder</w>
bl ue</w>
LABE L</w>
bu ttons</w>
Mo ved</w>
B H</w>
ADD RESS</w>
P t</w>
Balan cer</w>
ms v</w>
abil ities</w>
ind ows</w>
Ch annels</w>
v v</w>
serv let</w>
r s
De st</w>
h ref</w>
Disp osed</w>
no te</w>
Draw ing</w>
Re fs</w>
N a
NE G
D P</w>
Instr uctions</w>
p ending</w>
o me
modi fied</w>
Up da
Out going</w>
ro ss
contain ing</w>
RE G
CUR RE
i copy</w>
b g</w>
pu b</w>
p g</w>
ci pher</w>
SP EC
sum s</w>
entr opy</w>
Fin ish</w>
i ed</w>
F ully</w>
min imum</w>
Ne ural</w>
marsh alling</w>
b o</w>
dat um</w>
RO W</w>
g t</w>
s sions</w>
de v</w>
EV ENT</w>
Tit led</w>
ti fier</w>
SE AR
D D</w>
agno stic</w>
Re alm</w>
highli ght</w>
f st</w>
IT S</w>
re cur
di an</w>
Stri de</w>
ag r
ti ck</w>
G ene</w>
SH I
dis connect</w>
vo l
Gr m</w>
de lay</w>
JAV A</w>
CH AR
Gener ate</w>
auth ority</w>
AR D</w>
uti ls</w>
flo or</w>
ce d
end ant</w>
ass oc</w>
li ght</w>
PASS WORD</w>
Fr action</w>
A ware</w>
Result set</w>
ch osen</w>
Success ors</w>
P ack</w>
quen ces</w>
Cri teria</w>
B AD</w>
in valid</w>
FAC T
An imation</w>
di agram</w>
Sen der</w>
st u
At trib</w>
G amma</w>
re v</w>
h our</w>
Compati ble</w>
Li ght</w>
E ST
lo pe</w>
B IT</w>
Lin eage</w>
Exp ec
ta s</w>
R P</w>
t ty</w>
pri me</w>
Ma c</w>
ri t</w>
gu red</w>
Sn mp</w>
ch oice</w>
di vi
ST EM</w>
trans formed</w>
r y</w>
ap es</w>
u uid</w>
COM M
R SA</w>
conne cted</w>
E l</w>
RE E</w>
compil ation</w>
Bloc ks</w>
be d
T LS</w>
S EN
C ryp
E core</w>
Can celed</w>
Boo k
sn d</w>
In stall</w>
typ ed</w>
chec ked</w>
F oc
Declar ing</w>
listene e</w>
repe at</w>
N B</w>
e mb
sta ble</w>
Identi fiers</w>
STY PE</w>
dependen cies</w>
E E</w>
T xt</w>
w in</w>
visi ted</w>
no b</w>
EX CE
I Q</w>
Al g</w>
heri ted</w>
F P</w>
cle anup</w>
j c</w>
w d</w>
row se</w>
A verage</w>
sh a
ma c</w>
cur ve</w>
SU C
vie w
W in</w>
g row</w>
min ing</w>
DELE TE</w>
Re lease</w>
T ls</w>
Ac id</w>
Qu eries</w>
Process ed</w>
tl r</w>
sta tements</w>
BUN DLE</w>
Dec ision</w>
tr u
PARAME TER</w>
Fa cets</w>
TO P</w>
F ACE</w>
sw ap</w>
Local worker</w>
Min ute</w>
i g</w>
um b</w>
ID ENTI
m m</w>
Pa ce</w>
x x</w>
P ER</w>
pre ferred</w>
hi de</w>
Ma ven</w>
em on</w>
sh ips</w>
AC T</w>
Ex ist</w>
instanti ate</w>
d rag</w>
ad just</w>
Compar ison</w>
d is</w>
sugg ested</w>
ING S</w>
Compar able</w>
CLAS STYPE</w>
Ar e</w>
AT ING</w>
ff ect</w>
i x</w>
Th en</w>
c ar</w>
Mal function</w>
b ble</w>
Sy mantic</w>
WAR D</w>
Dete ctor</w>
Se en</w>
Ver ifier</w>
Quo te</w>
lay ed</w>
no de
Equi pment</w>
f atal</w>
SHI FT</w>
Per missions</w>
x b</w>
Parti al</w>
Par allel</w>
i to</w>
f v</w>
S mart</w>
PUBLI C</w>
Pack s</w>
P DE</w>
liste ning</w>
f w</w>
TY P
p b</w>
al locate</w>
IN VO
re try</w>
lap sed</w>
y y
Di stances</w>
BO O
vel op
Ou ter</w>
i ssu
C ss</w>
tr act</w>
D DL</w>
Comm ands</w>
ti s
J s</w>
so me</w>
Li t</w>
te st
He ap</w>
Bu cket</w>
sec onds</w>
fe deration</w>
re ferences</w>
ori an</w>
T asks</w>
ff s</w>
Parti cle</w>
compar ison</w>
top icmap</w>
ON T</w>
h ere</w>
b oun
RE SOURCE</w>
mi ted</w>
I MA
un modifiable</w>
Declar ations</w>
plu s</w>
res sed</w>
Pri ce</w>
t ness</w>
tu de</w>
l c</w>
pla y</w>
Too lbar</w>
oo ter</w>
Me ch
Dep loyment</w>
t uple</w>
C y
constr uct</w>
LA BLE</w>
B ool</w>
ced ure</w>
B ACK
f ic</w>
The me</w>
LI ED</w>
j lt</w>
Pu t</w>
D raw</w>
ite ra
f unc</w>
st o
OFF SET</w>
m ore</w>
on es</w>
V EL</w>
m gr</w>
At omic</w>
exec utor</w>
abe led</w>
g ain</w>
acti vate</w>
v ars</w>
gre en</w>
Sp acing</w>
IN SERT</w>
D H</w>
AS SIGN</w>
Privileg ed</w>
HO ST</w>
con textual</w>
e stim
Exp an
po ssible</w>
Co des</w>
s r
A G
gener ic</w>
recei ved</w>
pl sql</w>
CON TEXT</w>
tab bed</w>
B ins</w>
Loc ations</w>
JN I</w>
Mod ules</w>
In verse</w>
C md</w>
Wa iting</w>
Th ing</w>
Ar ticle</w>
wh ole</w>
DE CL
Un der
B I
ba z</w>
SCH E
Re qui
or b</w>
ome try</w>
sa tis
ser tions</w>
Sa fe</w>
Predi ct</w>
P L
y si
in tent</w>
clas spath</w>
tr acker</w>
ser vers</w>
s ation</w>
Cu be</w>
D K</w>
direc tives</w>
Ou tline</w>
on al</w>
be anshell</w>
Cu r</w>
Me rit</w>
in vert</w>
F RO
in validate</w>
adi ent</w>
We igh
pre view</w>
wh ich</w>
I LD</w>
Fre quency</w>
In d</w>
LE AN</w>
ph one</w>
edi table</w>
h yp
dl g</w>
st ub</w>
Bl k</w>
AR GU
ad vance</w>
Fr ames</w>
ab solute</w>
S CO
In correct</w>
BY TES</w>
M Q</w>
PRO CES
B LOCK</w>
and width</w>
Lay ers</w>
MI T</w>
g h</w>
d ro
Tur nout</w>
INTER FACE</w>
p vt</w>
m x</w>
AUT O</w>
In cluded</w>
Roo ts</w>
exten sions</w>
en e
COL ON</w>
tar gets</w>
assign ment</w>
d id</w>
c ks</w>
imp lemen
ne ighb
SK IP</w>
Parame terized</w>
RE T
j t</w>
Ac t</w>
Extr actor</w>
f x</w>
di v</w>
n g</w>
J DOM</w>
fi xes</w>
LO W
Disp atcher</w>
O id</w>
Ge tter</w>
Inter preter</w>
CURRE NT</w>
Reque stor</w>
U sers</w>
ve ment</w>
MAT CH</w>
Bas es</w>
ac tiv
Clo sure</w>
k able</w>
K it</w>
Out bound</w>
TI V
be ta</w>
H AN
ph o
v c</w>
re placement</w>
S N</w>
Co e
se st</w>
Cred entials</w>
un register</w>
i de</w>
Sig ned</w>
popu lation</w>
all enge</w>
Con ditions</w>
0 8</w>
peri od</w>
VAR CHAR</w>
Un ary</w>
TE MP
C ACH
man ifest</w>
c w</w>
Ran k</w>
ort cut</w>
Restri ction</w>
L LI
Al ready</w>
Fu ture</w>
rea ter</w>
DESCRI PTION</w>
b ool</w>
Invo ke</w>
Mid i</w>
sle ep
Fac tories</w>
Na ive</w>
T mp</w>
EN CO
Up dates</w>
Sec ondary</w>
seri al</w>
NEG ATIVE</w>
SY STEM</w>
N one</w>
bi g</w>
it r</w>
Num bers</w>
FAI LED</w>
re verse</w>
Imp orts</w>
char t</w>
match ing</w>
P ic
UP DATE</w>
CONFI G</w>
ch ed</w>
CS V</w>
Inde xed</w>
Enco d
sp li
ear ance</w>
Sig n</w>
F UN
al lowed</w>
to t</w>
Boo k</w>
c blk</w>
Con tin
PA GES</w>
ce ed</w>
de serialize</w>
fol ds</w>
Speci fic</w>
Wi re</w>
CHEC K</w>
Ke ep</w>
DA O</w>
SVN WC</w>
Mapp ed</w>
P ar</w>
uc tors</w>
p x</w>
C A
bl ob</w>
Discreti ze</w>
ag ments</w>
D L
str uct</w>
FI ED</w>
es tion</w>
op ts</w>
h it</w>
n fe</w>
Adap ters</w>
y cat</w>
ar m</w>
sha ke</w>
Cor rect</w>
RE AD
an tlr</w>
h t</w>
sleep ycat</w>
D O</w>
B IF</w>
t se</w>
Di fferen
Be ta</w>
de marshal</w>
I TI
FRO M</w>
U SER
ta verna</w>
sup p
To ggle</w>
ss ue</w>
t l</w>
laun ch</w>
p k</w>
pre p</w>
Min us</w>
C AT
dec or
BOO LEAN</w>
ter n
sub mit</w>
DO CU
E ach</w>
e le
Re placement</w>
w p</w>
Cach ing</w>
ipi ent</w>
ge t
r ate</w>
AV AI
sp arse</w>
F ri
mo d
Contr act</w>
s dp</w>
LA Y
OPER ATION</w>
W indows</w>
al ready</w>
OR DER
h pp</w>
v es</w>
r uleset</w>
Cap ture</w>
Fo reign</w>
confi gur
UT E</w>
S F</w>
G lyph</w>
charac ter</w>
Pl an</w>
Ta verna</w>
De serializer</w>
R t</w>
tra ces</w>
ur se</w>
comple ted</w>
Can didate</w>
goo gle</w>
s am
mapp ed</w>
rm ation</w>
IN ITI
CHAN GED</w>
w n</w>
lb acks</w>
ig en
b it
or dered</w>
sm oo
g ene</w>
C R</w>
co vered</w>
cre d</w>
G o
F amily</w>
tra verse</w>
PRO CE
Str uct</w>
Sm all</w>
co s</w>
min or</w>
E q</w>
pas sed</w>
col ors</w>
se p</w>
ti l</w>
r adius</w>
pa yload</w>
max imum</w>
Co ord</w>
di sc
E T</w>
DE P
Mech anism</w>
w ays</w>
al ker</w>
Pre f</w>
e vo
PRO XY</w>
curren cy</w>
p ar</w>
vi sed</w>
Star tup</w>
lin ked</w>
WR ITE</w>
a h</w>
dependen cy</w>
v ec</w>
Super class</w>
VAR I
ANNO TATION</w>
te e</w>
mm utable</w>
C ycle</w>
DE S</w>
C F</w>
J d
p cl</w>
V ectors</w>
Speci fied</w>
B R</w>
Initi alization</w>
Sh aring</w>
w w</w>
el i
sig ner</w>
CT XT</w>
Sk ip</w>
o is</w>
AVAI LABLE</w>
multip ly</w>
lec ule</w>
di dates</w>
Mis c</w>
pre ferences</w>
sli der</w>
u dp</w>
comm ands</w>
Audi t</w>
DECL AR
at tle</w>
Boun dary</w>
Me ch</w>
LIN K</w>
ar ti
CACH E</w>
I L</w>
D M</w>
RO LE</w>
in i</w>
h dr</w>
GE N</w>
EXCE PTION</w>
Ne eds</w>
roo ts</w>
De vs</w>
STRU CT
agr aph</w>
S ent</w>
SEAR CH</w>
GO E</w>
N Z</w>
ab str
Ab out</w>
Hi ts</w>
IC PP</w>
ex ceptions</w>
F OR</w>
RE SOL
Imp licit</w>
Re p</w>
q r</w>
BY E</w>
as per</w>
C U</w>
de faults</w>
r pc</w>
FORM ATION</w>
reg ex</w>
VI SU
E AST</w>
men to</w>
incre mental</w>
ss l</w>
min ute</w>
KE D</w>
SUC CESS</w>
APP LIC
bo s</w>
t mp
st orage</w>
ach ine</w>
COMPON ENT</w>
p ped</w>
cel ls</w>
s amples</w>
col our</w>
Ex amples</w>
Par ty</w>
in jec
rela ted</w>
IMP LIED</w>
Qu ick</w>
de o</w>
R uleset</w>
P M
DO T</w>
t y
fer able</w>
P atterns</w>
bu ilt</w>
Bo ard</w>
ab ort</w>
sp i</w>
run ner</w>
As c</w>
Comm unity</w>
IF D</w>
app lied</w>
Wa ter</w>
gr ade</w>
ar tifacts</w>
RET URN</w>
st d
AC TIVE</w>
Ste ps</w>
s te</w>
D A</w>
Per centage</w>
Po p</w>
ITE M</w>
Charac teri
spec tives</w>
an imate</w>
r adio</w>
back up</w>
C RL</w>
op er</w>
ma jor</w>
f lavor</w>
F UL
Exp ect</w>
K nown</w>
Trans formation</w>
Laun cher</w>
G a
App ly</w>
e sc
de f
BO OK
DI SA
Si zes</w>
Ex clude</w>
Pro jects</w>
Op ened</w>
tur y</w>
SE T
g ap</w>
trans former</w>
ysi cal</w>
un known</w>
Ex isting</w>
se arch
b rowser</w>
OP M</w>
con ditions</w>
Ti mes</w>
Forwar ding</w>
Dep ends</w>
Fi g</w>
ec e</w>
termin ate</w>
Ver sions</w>
s ock</w>
abstr actions</w>
Ro les</w>
I ES</w>
T ech</w>
Direc tives</w>
ar ity</w>
al ign
h igh
dat ab
se mantic</w>
sti mated</w>
inter rupt</w>
Q UE</w>
Po st
pol l</w>
In bound</w>
t ten</w>
Conver sation</w>
De l</w>
Beh ind</w>
h ood</w>
i is</w>
Sta tements</w>
Read able</w>
LO C</w>
dec ryp
hand les</w>
Charac ters</w>
men ter</w>
si mul
A WT</w>
Sign ificance</w>
BO LD</w>
logg ing</w>
ffe rent</w>
tain ed</w>
ex clude</w>
SUPP OR
tex ts</w>
ffffff f</w>
Ac c</w>
F unctions</w>
la tes</w>
amp ling</w>
H SSF</w>
Con d</w>
EX T</w>
n pc</w>
coe fficients</w>
modi fier</w>
er ve</w>
Re direct</w>
Col l</w>
TYP ES</w>
Trans actions</w>
SECON D</w>
sh ot</w>
HE IGHT</w>
co mb
TERMIN ATED</w>
Da emon</w>
lb l</w>
p adding</w>
predi cate</w>
Ph one</w>
An tds</w>
t v</w>
dou bles</w>
ol er
pag ation</w>
Ur ls</w>
Sen sitive</w>
ter ms</w>
Reque sts</w>
Ca tch</w>
Sub band</w>
r ror</w>
Arch i
cli ck</w>
evo suite</w>
MAR SH
p ing</w>
nd les</w>
ill able</w>
Decor ator</w>
sum j</w>
ce il</w>
y th
up ing</w>
Exp and</w>
j sp</w>
WH ITE</w>
Exp ressions</w>
ad dresses</w>
Ow ned</w>
initi alized</w>
DE F
Calcul ator</w>
Visi ted</w>
t we
p u</w>
An td</w>
h f</w>
c erts</w>
M ock
invo cations</w>
pol y
Ch e
agg reg
PAT TER
i tes</w>
P atch</w>
J ID</w>
B ars</w>
ren cy</w>
L P</w>
AL S</w>
SECON DS</w>
n on
f hs</w>
sp rint</w>
bed ded</w>
We ak</w>
FOR WARD</w>
cor r</w>
lap se</w>
G C</w>
Sig ner</w>
SHO W</w>
Den sity</w>
comp ression</w>
0000 0000
Gran ular</w>
Un ion</w>
IDENTI FIER</w>
Th row</w>
AD ING</w>
Tru sted</w>
doc s</w>
e se</w>
Lo st</w>
Ch em</w>
m ount</w>
re write</w>
LOC ATION</w>
OR S</w>
Invo ker</w>
as y
m and</w>
al f</w>
R ound</w>
al ign</w>
s ages</w>
Exp orter</w>
ul l
ack et</w>
REFER ENCE</w>
throw able</w>
ED IT
proto buf</w>
id ths</w>
Ac quire</w>
mm er</w>
Cap tcha</w>
Wor ld</w>
QU ER
s id</w>
ch oose</w>
ne twork</w>
E G
Po wer</w>
ava il</w>
E tched</w>
Le tter</w>
v ing</w>
b ank</w>
C TR
b indings</w>
yth on</w>
Re try</w>
Cen ters</w>
compar ator</w>
DOCU MENT</w>
sin ess</w>
m or</w>
v l</w>
LE VEL</w>
An onymous</w>
ATI ONAL</w>
seri alization</w>
l er
S lots</w>
ch r</w>
d r
R ATING</w>
u ned</w>
g amma</w>
T AR
B F</w>
g ue</w>
z able</w>
R av
clo sed</w>
can onical</w>
P R</w>
AC TIV
de bu
F ro
En closing</w>
MA IN</w>
L ambda</w>
CL I
LOC AL</w>
t b</w>
initi alise</w>
IMA GE</w>
n x</w>
V o
pa ce</w>
C PT</w>
ir d</w>
VER BO
D ump</w>
ran ked</w>
as sertion</w>
Con current</w>
and box</w>
Rav en</w>
L ar
B and</w>
Sta ge</w>
S ources</w>
cluste rs</w>
Tran sition</w>
el ow</w>
ex iting</w>
S R
TR A
Har ness</w>
Rep o</w>
Form atted</w>
bl y</w>
W IN
Form al</w>
j m
Fe tch</w>
FOR MAT
Ali gn</w>
re vert</w>
p eline</w>
In f
m anag
sum i</w>
Ph rase</w>
x p</w>
th reads</w>
IN CLU
sem ble</w>
G UID</w>
Form ats</w>
ph ase</w>
S dk</w>
mi ter</w>
l m</w>
deri ve</w>
Op code</w>
CHAN GE</w>
Un available</w>
stin ct</w>
con st</w>
EQU AL</w>
ti ght</w>
E p
be st
am ount</w>
ch es</w>
Sta mp
w ind</w>
PROCE ED
g ot</w>
Un used</w>
AL IZ
TA B</w>
pro ducer</w>
V jo</w>
IN FORMATION</w>
c tic</w>
u tes</w>
We apon</w>
pla ced</w>
C ATION</w>
ari o</w>
Hoo k</w>
Col lected</w>
van ced</w>
Te xture</w>
PATTER N</w>
D r
Im g</w>
MA PP
K O
F req</w>
b ags</w>
Clas sname</w>
VERBO SE</w>
Sc ufl</w>
s j</w>
initi alizer</w>
Read y</w>
per l</w>
ARGU MENT</w>
as set</w>
Me ss
u sable</w>
No ise</w>
ro tate</w>
Result sets</w>
E scape</w>
Pol l</w>
E cli
reg orian</w>
v acy</w>
sp eed</w>
ENCO DING</w>
pro j</w>
D C</w>
Ass ess
oler ance</w>
ME MB
TA IN
E ffect</w>
mo dels</w>
J o
FIN E</w>
vari ant</w>
SH A
min us</w>
pri v</w>
run ning</w>
E JB</w>
TIME OUT</w>
Expan sion</w>
Deco de</w>
T REE</w>
Favour ite</w>
Co dec</w>
B r
too ls</w>
fin alize</w>
out going</w>
asp ect</w>
Ter ms</w>
T OR</w>
Pa yload</w>
tivi ties</w>
n tk</w>
deco mp
seri alized</w>
li es</w>
align ment</w>
res sor</w>
dow n
re quire</w>
os able</w>
J MS</w>
ser ved</w>
itera tions</w>
posi tories</w>
oi ces</w>
de book</w>
gr an
t name</w>
Ex emp
Pro jection</w>
Dec ls</w>
pr uned</w>
REQU I
op en
cel led</w>
S po
la ce</w>
i v</w>
M aps</w>
f lic
PM ML</w>
Mo tion</w>
F D</w>
I R</w>
sec t</w>
sav er</w>
W as</w>
T il
DO C</w>
R outer</w>
ron t</w>
Un resolved</w>
le x</w>
CTR L</w>
to ggle</w>
ri er</w>
fu sion</w>
gener ated</w>
sc rol
Comp ression</w>
w ildcard</w>
arch ive</w>
CON TAIN
B AT
G R
per s</w>
re do</w>
ORDER ED</w>
g est</w>
SCO PE</w>
key store</w>
tifi cates</w>
F ONT</w>
Pa in
ch anges</w>
stal led</w>
si n</w>
EX P</w>
Exec u
cal ler</w>
twe en</w>
DE F</w>
RU LE</w>
Pla cement</w>
Lar ge</w>
ab ber</w>
EN D
temp d</w>
inte ger</w>
SI MP
Ch at</w>
u ne
r aster</w>
yp arse</w>
Se ssions</w>
in v</w>
Re ferenced</w>
ER S</w>
C MS</w>
Ex ec</w>
Bloc king</w>
MUL TI
run nable</w>
lo y</w>
an imation</w>
Y yparse</w>
Key board</w>
e ffective</w>
mar ks</w>
Tri e</w>
T ck</w>
op tional</w>
SM ALL</w>
Debu gger</w>
En velop
k i</w>
D RL</w>
Tr y</w>
si mples</w>
Exp onent</w>
DEFIN ED</w>
J PE
Publ isher</w>
re size</w>
ti n</w>
Til de</w>
PRO JECT</w>
trans fer</w>
Produ ced</w>
App lied</w>
EN TRY</w>
P oo
or ting</w>
SCHE MA</w>
En dian</w>
e sd</w>
SE R</w>
Pack ed</w>
Fi re</w>
sp ector</w>
R ating</w>
As sertions</w>
end or</w>
Pla in</w>
b t</w>
de ta
r mi</w>
E st</w>
l ar</w>
A ri
posi tions</w>
Ch ro
x pos</w>
syn ta
Ge ometry</w>
MI LLI
Declar ator</w>
clu sion</w>
Assess ment</w>
o ids</w>
PO S</w>
Di vider</w>
m k</w>
re cted</w>
Pro files</w>
audi t</w>
Issu er</w>
Cli pboard</w>
Gr adient</w>
G i
sub tract</w>
Sh aded</w>
Ex change</w>
Aggreg ation</w>
Re d</w>
i red</w>
deco ded</w>
Sub sets</w>
jj t</w>
Look ahead</w>
B all</w>
c ross
T agged</w>
D R</w>
g men
col on</w>
por tlet</w>
g an
process ing</w>
Ad vice</w>
Disp ose</w>
d ar
Tra versal</w>
FUL L</w>
gr aph
c ss</w>
O C
numer ator</w>
F atal</w>
MA X
Activ ator</w>
Exec utable</w>
Check box</w>
ori entation</w>
Classi fication</w>
MEN TS</w>
exten ded</w>
N A</w>
Num s</w>
f re
Imp orted</w>
m r</w>
al am</w>
res tri
low est</w>
Ref lection</w>
se en</w>
Re do</w>
un ks</w>
pe g</w>
atta ch</w>
Min or</w>
Ch ang
OK E</w>
cre te</w>
exten d</w>
Tool tip</w>
So ap</w>
o ver</w>
Sur face</w>
de rers</w>
ser v</w>
ap shot</w>
Regi stered</w>
E li
FEAT URE</w>
re draw</w>
t u</w>
pack ages</w>
STR OKE</w>
alo gue</w>
f ast</w>
cumul ative</w>
DIRE C
Termin ation</w>
Un til</w>
P k
MA IN
ac quire</w>
co gn
Ecli pse</w>
provi ders</w>
o de</w>
Vari ant</w>
JPE G</w>
Schedul er</w>
N ano</w>
Un defined</w>
t sl</w>
in verse</w>
Cryp to</w>
J abber</w>
CO M</w>
BL ACK</w>
I mmutable</w>
substitu te</w>
centr al</w>
T DS</w>
Mock ito</w>
alu ed</w>
DA V</w>
T f</w>
Ma jor</w>
Con fusion</w>
emb l</w>
VISU AL</w>
inde xes</w>
sc ufl</w>
c me</w>
ssi an</w>
Inten tion</w>
t ou
cip ant</w>
mp s</w>
A A</w>
Resi zable</w>
mk dirs</w>
Di agnostic</w>
b ridge</w>
Rol l</w>
He ad
Cal ls</w>
issu er</w>
f l
p l</w>
log y</w>
M achine</w>
ho stname</w>
da o</w>
p alette</w>
PU SH</w>
c les</w>
Pe ek</w>
B t</w>
sty les</w>
l on
un ion</w>
j q</w>
PK CS</w>
Deco mp
u nexpected</w>
le ar
si z</w>
Sub string</w>
De sktop</w>
Sche mas</w>
co very</w>
B AS
UT C</w>
Qu ality</w>
AM P</w>
cl ename</w>
arti clename</w>
Fr amework</w>
Recei ve</w>
con cept</w>
Tab u</w>
Spa ces</w>
Pre tty</w>
DAT A
x c</w>
Adju st
cur acy</w>
App end</w>
or ized</w>
Comp ile</w>
De le
pi x</w>
res ult
PRI V
R ing</w>
too lbar</w>
il ab</w>
configur able</w>
Book mark</w>
propo sal</w>
FACT ORY</w>
yte code</w>
sig nal</w>
Mark ers</w>
Bi as</w>
Atta ck</w>
t ments</w>
oper and</w>
a flows</w>
MI ME</w>
u t</w>
rep o</w>
AN Y</w>
E DEFAULT</w>
retur ned</w>
to able</w>
authenti cation</w>
EN AB
S il
Cri t</w>
re ports</w>
AS H</w>
bloc ks</w>
prin t
B ACK</w>
e ach</w>
b reak
B ro
mi al</w>
me trics</w>
auth or</w>
H IST
t node</w>
ME DI
s an
expi re</w>
MP S</w>
Intro spection</w>
qu ent</w>
in fos</w>
ex t
lan ation</w>
Navig ation</w>
me th</w>
t et</w>
lic ies</w>
ar t</w>
RE SP
STR E
COMP AR
CL I</w>
Associ ated</w>
DISP LAY</w>
L ap
STR IC
QUER Y</w>
App ender</w>
de sired</w>
Sc an</w>
E lapsed</w>
asy nc</w>
ar ticle</w>
Trans actional</w>
UN IT</w>
ele ms</w>
propo sals</w>
co verage</w>
pro blems</w>
Ar cs</w>
REL ATIONAL</w>
Gran ted</w>
ref s</w>
z i
spa wn</w>
No te</w>
Se gments</w>
Stre ams</w>
super class</w>
LI T</w>
l ying</w>
Doc uments</w>
w r</w>
j st</w>
resp on
W ay</w>
Pro te
cu stom
a re
Ti les</w>
E jb</w>
sett ing</w>
DEF ECT</w>
KO ML</w>
Logg able</w>
Check sum</w>
On ce</w>
CONNEC TION</w>
sta ge</w>
bu ild
Tra ces</w>
RESP ON
uplic ates</w>
enco der</w>
yp os</w>
LAY OUT</w>
i ce</w>
Rel ated</w>
t z</w>
in side</w>
S M</w>
F ooter</w>
COL LEC
e of</w>
ab out</w>
Pri v</w>
SV M</w>
se u
per siste
X P</w>
sy mbols</w>
super vised</w>
p n</w>
Re mo
F C</w>
Inter vals</w>
J vm</w>
SCRO LL
CI I</w>
tt ing</w>
key word</w>
n avig
Li cen
ca tegories</w>
Inter mediate</w>
Me m</w>
Characteri stics</w>
hand lers</w>
DE CI
or i</w>
k o</w>
r f</w>
bu cket</w>
se t
flo w
op ened</w>
G au
Sh ortcut</w>
Sp i</w>
Instr ument</w>
work bench</w>
G RA
WIN DO
Sav ed</w>
AS CII</w>
S I</w>
form al</w>
c ac
v ec
Navig ator</w>
p sis</w>
d rools</w>
ENAB LED</w>
Re c</w>
TRANS FORM</w>
c au
Separ ators</w>
f req</w>
S ING</w>
pack ed</w>
wor ld</w>
Par agraph</w>
C ALL</w>
v el</w>
HIST ORY</w>
Re marshal</w>
I ON</w>
mo lecule</w>
Trans formed</w>
G o</w>
se g</w>
k eli
Ti m
dy namic</w>
Leg end</w>
x ing</w>
Mar ked</w>
Gener atable</w>
Fol ders</w>
ac er</w>
keli hood</w>
PO INT</w>
De serialization</w>
Fi le
tr o</w>
h ave</w>
Resp on
n illable</w>
SE SSION</w>
ri bble</w>
the tic</w>
A U
Sh own</w>
ti ces</w>
For ce</w>
ff ected</w>
D TO</w>
G IN
coun try</w>
OP TI
Si mul
EN TS</w>
adap tor</w>
g ood</w>
IN D
T K</w>
Temp or
Stop ped</w>
T re
INTER NAL</w>
fe atures</w>
den om</w>
str oke</w>
SI VE</w>
simul ation</w>
No w</w>
Mer ged</w>
O TH
Supp lier</w>
Inter action</w>
t str
pro jection</w>
LE ADING</w>
f lat</w>
g tk</w>
col lector</w>
e qui
Su gg
p atch</w>
WA IT</w>
exec ution</w>
al g</w>
B elow</w>
st store</w>
q v</w>
Th rows</w>
Sty les</w>
FORMAT TER</w>
Re v</w>
per m</w>
Par sing</w>
Op ts</w>
sp end</w>
be h
Par sed</w>
ip ped</w>
EX PRE
A ST
G regorian</w>
ran king</w>
UNI QUE</w>
or ders</w>
um b
g a</w>
ra ins</w>
L abeled</w>
SUPPOR TED</w>
I ce</w>
si zed</w>
l n
P LE</w>
c n</w>
Edi tors</w>
w ay</w>
por ate</w>
H op</w>
s el
TAR GET</w>
Pa nels</w>
Star table</w>
Work book</w>
throw n</w>
la p</w>
p id</w>
c mb</w>
W N
PUBLI SH
Le ast</w>
h list</w>
d m
Ali ases</w>
MARSH AL</w>
bo t</w>
T xn</w>
H ref</w>
Me di
SI R</w>
Reg ressions</w>
Hand shake</w>
ic ation</w>
DER I
C trl</w>
differen ces</w>
Mo vement</w>
O ps</w>
IN I</w>
in f
ap pro
J ca</w>
ti cs</w>
draw ing</w>
Sta te
vi dence</w>
con sole</w>
tion ed</w>
ge tter</w>
Di fferent</w>
en ario</w>
ap ed</w>
ten ce</w>
es ds</w>
lob als</w>
PRIV ATE</w>
visu alize</w>
W alker</w>
h int</w>
tr ust</w>
k m</w>
pri ors</w>
cri teria</w>
pre c</w>
in di
Stri ct</w>
Over write</w>
Dat agram</w>
Bio mart</w>
Aggreg ate</w>
contain ed</w>
en t
result set</w>
h er
ali ases</w>
R T
XS L</w>
X T
in to</w>
a verage</w>
P ull</w>
EX CLU
er r
TRAN SI
Coordin ates</w>
li ance</w>
TO M</w>
clo sest</w>
K D</w>
se verity</w>
g lyph</w>
sam l</w>
pro b
uc li
BU FF
y be</w>
s qu
Bit map</w>
e point</w>
Cor porate</w>
Compu te</w>
paren ts</w>
e able</w>
d sl</w>
Asc ii</w>
dep endent</w>
In fin
w ww</w>
de te
c ity</w>
d td</w>
SE S</w>
C on</w>
NAM ES</w>
PRO VI
r shell</w>
dis abled</w>
C P
re lev
m name</w>
SPEC I
J sp</w>
OP EN</w>
tool kit</w>
s z</w>
instr uction</w>
S copes</w>
CUR SOR</w>
Del i
BAT CH</w>
p le</w>
S Q
Cer tificates</w>
Ca tegories</w>
vari ables</w>
De mand</w>
R UN
IT H
P DF</w>
d u</w>
lav ors</w>
Stri p</w>
SY N
A bo
Ve toable</w>
min o</w>
d ri
el ls</w>
Gre en</w>
Pi vot</w>
vi ce
Indi vi
listene es</w>
n p</w>
S LO
au to
ra in</w>
BOOK TITLE</w>
k age</w>
al ph</w>
ws federation</w>
we b
expi res</w>
Abo ve</w>
Contain ers</w>
MAPP ING</w>
DATA FLOW</w>
ou ts</w>
Te x
X ED</w>
T OP
up load</w>
V ery</w>
sta r</w>
Con n</w>
predi ction</w>
H old</w>
SP LIT</w>
C r
ch annels</w>
En crypted</w>
u ser
X MP
In side</w>
imp orts</w>
classi fication</w>
Sc ilab</w>
Custom izer</w>
st op
t al
Boo sting</w>
A xes</w>
der ing</w>
B B</w>
sw ig</w>
Ph ysical</w>
CAT EG
VO L
b ig
tstr ap</w>
c trl</w>
C a</w>
k o
br aries</w>
Reco very</w>
DECLAR ATION</w>
B ITS</w>
umb na
MO DI
Trans ferable</w>
XMP P</w>
CON ST</w>
FOR E</w>
A mino</w>
regi stered</w>
re direct</w>
x stream</w>
k p</w>
COM MA</w>
RESPON SE</w>
A F
ev ed</w>
ap er</w>
P K</w>
Re size</w>
Seri alize</w>
s ur
co de
Meas u
y p</w>
boo st</w>
Re verse</w>
d amage</w>
V oc
Ca stor</w>
m an</w>
Pro tected</w>
BO T
AC CESS</w>
C lean</w>
pu t
Al location</w>
do es</w>
VISI BLE</w>
C B</w>
comp ati
De stroy</w>
En semble</w>
Con tribu
pro g</w>
Sy m</w>
dat asets</w>
Search er</w>
h or</w>
gen cy</w>
Jd bc</w>
XML NS</w>
Ne g</w>
D amage</w>
ter minal</w>
post invoke</w>
Sco res</w>
SCROLL BAR</w>
P Y</w>
Bu sy</w>
N s</w>
Compati bility</w>
D at</w>
M U
BE FORE</w>
El se</w>
A mount</w>
m ock
p ur
Initi alis
cr l</w>
GRO UND</w>
aa aa
IL D
pre invoke</w>
COMM AND</w>
A st</w>
e a
P lay
sec ondary</w>
With in</w>
redu ce</w>
Y s</w>
Qu anti
Ad dresses</w>
s al
prin ter</w>
C F
Logg ed</w>
x id</w>
PUBLISH ER</w>
FUN CTION</w>
CON STAN
f on
wh at</w>
re ferenced</w>
Indivi dual</w>
In ter</w>
Oc curren
direc tive</w>
PO ST</w>
en i
C AL
We b
Stamp able</w>
Clas s
Ar mor</w>
dis tribu
SI TE</w>
Exp licit</w>
Te sting</w>
Sp lash</w>
pro mpt</w>
Ag ain</w>
in er</w>
conver ted</w>
Pres ence</w>
B ags</w>
JD K</w>
w r
off sets</w>
k en</w>
mapp er</w>
ba ti
ta s
exp onent</w>
Comp o
Si tes</w>
E ucli
e at</w>
Pr une</w>
Prob abilities</w>
sen sor</w>
Pro x
mock ery</w>
c sv</w>
Se g</w>
Di ct</w>
BOT TOM</w>
M s</w>
f sp</w>
CLI ENT</w>
rou gh</w>
EDIT OR</w>
sq le</w>
ENTI TY</w>
N D</w>
LAN G</w>
C ER
subscri ption</w>
e b</w>
re pos</w>
G RAY</w>
Key store</w>
Te x</w>
Le ss</w>
ex peri
HO UR</w>
jec tive</w>
gra d</w>
B attle</w>
u ous</w>
Z IP</w>
Ex po
V E
STRE AM</w>
oun ted</w>
d up</w>
Centr al</w>
imp orted</w>
b is</w>
sy n</w>
SI TIVE</w>
AL PH
un install</w>
lo ws</w>
al ert</w>
id ent</w>
T CP</w>
Gi ven</w>
an cestor</w>
Per sist</w>
CO OK
star tup</w>
Back up</w>
AL E</w>
datab inding</w>
Chec ks</w>
gra b</w>
Ass em
cryp t</w>
Ch allenge</w>
ALIG N</w>
Can not</w>
gu id</w>
C b</w>
No tifier</w>
Ma il</w>
alo gs</w>
tas ks</w>
in str</w>
VER SE</w>
Centr oids</w>
Adap table</w>
APPLIC ATION</w>
star ted</w>
pr i</w>
at ar</w>
S lope</w>
n i
de an</w>
con ditional</w>
Ti cket</w>
T I</w>
f mt</w>
k lass</w>
n y</w>
chec king</w>
C ir
g th</w>
C v</w>
con flict</w>
S our
ext pad</w>
Repor ting</w>
u sers</w>
ST AMP</w>
ATI LE</w>
Visu alization</w>
F ront</w>
o ms</w>
g ray</w>
p ic
VOL ATILE</w>
Desc endant</w>
cook ies</w>
TRANSI ENT</w>
Expec tations</w>
EXPRE SSION</w>
RE ST</w>
l f</w>
C AP
di rty</w>
K F</w>
Ste pname</w>
Po ssible</w>
Fro g</w>
rec ords</w>
al ect</w>
H I
Ma ker</w>
mp c</w>
FO C
sta b</w>
Produ ction</w>
reg ression</w>
hash table</w>
te sting</w>
Comp iled</w>
Rec or
Vol ume</w>
P IT</w>
Di rs</w>
f r</w>
st re
Disp layed</w>
k ie</w>
Rec on
Dat aflows</w>
E OL</w>
in cr</w>
c am
x y
se gments</w>
al ter
MEMB ER</w>
L PAREN</w>
Re quire</w>
SIMP LE</w>
OR B</w>
d dl</w>
SELEC T</w>
H sql</w>
Bl ue</w>
l g</w>
TH E
publ ish</w>
M ust</w>
Inten sity</w>
audi o</w>
rs md</w>
Confi rmation</w>
d rl</w>
Mess aging</w>
Monit orable</w>
flic ts</w>
i ae</w>
IND ENT</w>
enti ty
typ e
Log ic</w>
De f
t bl</w>
Mo des</w>
min ator</w>
la ter</w>
di stances</w>
d v</w>
G ood</w>
Eucli dean</w>
Ste re
H S</w>
l ambda</w>
c txt</w>
ro s
Qu est</w>
l dap</w>
n once</w>
ste rs</w>
node list</w>
Co der</w>
v ar
Hash ed</w>
deta ch</w>
SEN SITIVE</w>
cre d
sche dul
struc tions</w>
clo b</w>
gran ular</w>
COLLEC TION</w>
tu res</w>
pri vileg
Shoo tme</w>
Cook ies</w>
P name</w>
au x</w>
conne ctions</w>
REQUI RED</w>
seu do</w>
Exten d</w>
Can celled</w>
De sired</w>
jm ri</w>
QU EST
COOK IE</w>
Rec ipient</w>
AR G</w>
In d
Ep silon</w>
PROCEED INGS</w>
rec tangle</w>
ar rows</w>
METHO DS</w>
w izard</w>
Sty led</w>
pro jects</w>
On ms</w>
g i</w>
KE T</w>
J ava
Gu ard</w>
Cor rection</w>
E sc
TH AN</w>
Licen se</w>
inter net</w>
en tering</w>
Pro mpt</w>
l index</w>
U sages</w>
sv n</w>
ros stab</w>
fr agments</w>
ren gth</w>
pri ce</w>
alle st</w>
re qui
sty lesheet</w>
Fi x
Ne sting</w>
G reater</w>
B tn</w>
s lash</w>
ft ress</w>
poly gon</w>
d h</w>
T C</w>
h alf</w>
se quences</w>
fi cations</w>
deli miter</w>
AN CE</w>
D RA
Re tained</w>
form s</w>
ur istic</w>
VAL ID
declar e</w>
Hand les</w>
Experi menter</w>
Syn th</w>
c sj</w>
Schedul ed</w>
Pro to</w>
wa iting</w>
Sty lesheet</w>
ro i</w>
G en
le ware</w>
I SVN</w>
S D</w>
Cen tury</w>
Pro pagation</w>
c g</w>
Qu estion</w>
Graph ic</w>
Paren the
L ATE</w>
e ps</w>
R i</w>
c v
Craw l</w>
AL G
ff ers</w>
DIRE CT
D MN</w>
associ ator</w>
Weigh ted</w>
POSI TION</w>
E VAL</w>
A C</w>
S ati
Sy s</w>
AT URE</w>
search er</w>
fr ames</w>
oc ity</w>
ul y</w>
sh a</w>
Pro cedure</w>
SUB J</w>
d uplicate</w>
Dep endent</w>
bu t</w>
hand led</w>
Bl end</w>
en table</w>
Down load
FIN I
t cp</w>
me mbership</w>
Constr uctors</w>
VARI ABLE</w>
cryp to</w>
Be tween</w>
Pro log</w>
Optim al</w>
DECI MAL</w>
Enumer ator</w>
CRE ATE</w>
un wrap</w>
reque sted</w>
Proto type</w>
la ve</w>
g fx</w>
Per spectives</w>
hi erarchy</w>
J ump</w>
no ts</w>
as signed</w>
entity config</w>
sig ma</w>
il i
col lapse</w>
S pr
B ig
work space</w>
re por
Re du
conver ters</w>
BO X</w>
G it</w>
midd leware</w>
si bling</w>
ob js</w>
el d
L ex</w>
I ssue</w>
associ ated</w>
I P
Dat as</w>
Ro ster</w>
Expi red</w>
l st</w>
X OR</w>
Ga ined</w>
edi ting</w>
UN DEFINED</w>
Im mediate</w>
up les</w>
d aries</w>
Pl ane</w>
work flow
buf pos</w>
Sol ution</w>
am p</w>
di ct</w>
k k</w>
BE AN</w>
Ro tation</w>
BUFF ER</w>
in structions</w>
Pain ted</w>
QUEST ION</w>
IN PROCEEDINGS</w>
Id le</w>
FF FF</w>
re cover</w>
MO DU
DESCRI P
War n</w>
workflow model</w>
m ust</w>
clo sure</w>
n ts</w>
c type</w>
TIME STAMP</w>
R id
curren t
C lock</w>
e u
ri gh
Sub tree</w>
l k</w>
produ ction</w>
a ir</w>
Valid ating</w>
S orter</w>
Ne ar</w>
the ta</w>
leg end</w>
O s</w>
e qu
di ctionary</w>
CU ST
Cle anup</w>
il er</w>
W ins</w>
CONTAIN ER</w>
Auto ma
acce ssible</w>
ref lect</w>
t g</w>
L R
EC G</w>
su p</w>
HAN D
CATEG ORY</w>
ME TRI
Ex cluded</w>
lo ose</w>
k base</w>
enti ties</w>
Bu siness</w>
Scrol ler</w>
differen ce</w>
Den ied</w>
wor th</w>
Si mples</w>
P I
En tered</w>
De p</w>
Re direc
il tin</w>
Un marshalling</w>
db md</w>
NO TI
AUT H</w>
ur n</w>
pho tran</w>
FR AME</w>
sta tes</w>
p ages</w>
p added</w>
SLO T</w>
me tic</w>
B S</w>
AF TER</w>
Ra ce</w>
Envelop e</w>
M Y</w>
ff ic</w>
Sh apes</w>
Loc als</w>
Un der</w>
PLU S</w>
N ls</w>
De ta
PRE F</w>
speci al</w>
RAN GE</w>
q l
PRE MI
DI A
ra tio</w>
log ical</w>
fa c</w>
RE MO
mk dir</w>
Foc usable</w>
b ond</w>
as sem
Con tra
w t</w>
g a
propo sed</w>
Di sc
Fi tness</w>
Ob servers</w>
OTH ER</w>
pk m</w>
i mp</w>
Gau ssian</w>
De sign
n er
im ages</w>
Ex tern
D Y</w>
ALG OR
e jb</w>
R M
confi gured</w>
c ker</w>
Trans lated</w>
SV NU
Mark up</w>
dec lared</w>
ALGOR ITH
dig its</w>
coe ff</w>
At temp
Con crete</w>
Em bedded</w>
ori ties</w>
R and
cac he
Repe at</w>
cau ght</w>
USE S</w>
tr ansp
Ren dered</w>
no psis</w>
DE LI
Bu ndles</w>
Co verage</w>
ul x</w>
S ound</w>
nd i</w>
F lat</w>
an td</w>
CH ILD</w>
p df</w>
ta ke</w>
Inten ded</w>
Dy n</w>
Stre am
W f</w>
S L</w>
n arrow</w>
in o</w>
ver sed</w>
me mory</w>
B ar
co ord</w>
DISP O
D NS</w>
com ments</w>
al loc</w>
g ree</w>
C DK</w>
P an</w>
Con currency</w>
Doc umentation</w>
ri s</w>
th metic</w>
Str and</w>
D SA</w>
AT ER</w>
d g</w>
mb ol
are gs</w>
fli p</w>
ac ted</w>
LI ST
sv c</w>
ass words</w>
end a</w>
Log istic</w>
DI T</w>
C MD</w>
Marsh alling</w>
as ta</w>
C PP</w>
B rowse</w>
Adjust ment</w>
AP P</w>
mod ules</w>
P ub</w>
J PA</w>
u k</w>
qui sition</w>
Retur ned</w>
Ser vice
x er</w>
en ded</w>
R VM</w>
mbol ic</w>
or th</w>
Modi fiable</w>
DERI VED</w>
disc ard</w>
RE STRIC
ITE MS</w>
En c</w>
Temp lates</w>
q km</w>
d os</w>
sh ad
M ic
E MENT</w>
m ath</w>
R s</w>
T olerance</w>
Re positories</w>
U ml</w>
stan d
ffici ent</w>
Neighb our</w>
p lots</w>
IN TEN
ge ster</w>
can didates</w>
tan ce</w>
inter preter</w>
norm alized</w>
Vi deo</w>
Ch osen</w>
pre pared</w>
Disp osable</w>
Hi de</w>
re load</w>
Contra int</w>
oper ations</w>
in herited</w>
O VER
u tf</w>
le v</w>
M T</w>
sta ti
a res</w>
Equ ality</w>
mu l</w>
b al
redu ced</w>
GE T
Ex act</w>
Pi peline</w>
Pr o</w>
en se</w>
TE ST
si z
in fix</w>
B LE
d f
an n</w>
prin cipal</w>
scan line</w>
Th rough</w>
cl oned</w>
comm a</w>
G G
wi th
B andwidth</w>
G ri
E vidence</w>
CF G</w>
cl ic</w>
Highligh ter</w>
In herited</w>
vie ws</w>
Confi gured</w>
ssi bility</w>
m itted</w>
cu ts</w>
AB STR
Co urse</w>
X axis</w>
CONSTAN T</w>
v mc</w>
an os</w>
cess ors</w>
Pre defined</w>
C ls</w>
ul a</w>
DT X</w>
ALIG N
k a
H L</w>
Typ e
ick ness</w>
str and</w>
cess ary</w>
Graph ical</w>
NE E
LI GHT</w>
bo a</w>
Re vo
d ic</w>
REL ATED</w>
Pa inter</w>
N G</w>
Ca r</w>
Encod able</w>
Upda ter</w>
FA IL
Clic kable</w>
Ch oo
pk cs</w>
ing ing</w>
h m</w>
bu ffered</w>
Ow n</w>
un der
ma ybe</w>
Ari thmetic</w>
in ten
atta ch
AN TI
MODU LE</w>
compu ter</w>
PO IN
v uid</w>
Service port</w>
re m</w>
Un satis
Head less</w>
C ent</w>
Oc tet</w>
I tor</w>
le ctions</w>
oo t</w>
b rowse</w>
Au gmen
el ap
beh avior</w>
visi bility</w>
N ame
pa inter</w>
Pla ce
off s</w>
ma inder</w>
In serted</w>
quo tation</w>
Li mited</w>
contr ol
SU F
descri be</w>
LU ME</w>
un d
tu ator</w>
RE MOVE</w>
En ds</w>
Upda teable</w>
U DP</w>
Po jo</w>
ID LE</w>
Che ese</w>
mar k
Con texts</w>
u ff
So me</w>
W atch</w>
jd t</w>
k es</w>
CON C
te ster</w>
St o
RE XP</w>
00 0000</w>
sy nopsis</w>
V endor</w>
E nt</w>
Cor relation</w>
u sing</w>
CP U</w>
gu ard</w>
d pc</w>
umbna il</w>
F RA
over all</w>
Lap lace</w>
op c</w>
h its</w>
Confi dence</w>
CHAN GE
m d
Wi ki</w>
Or gan
pa t</w>
i eld</w>
AL LOW</w>
Pre fixes</w>
Del tas</w>
Cri tical</w>
j et
Tou ch</w>
Authenti cator</w>
SH ED</w>
Den se</w>
i wc</w>
Ve to</w>
i fied</w>
H at</w>
duc ts</w>
Ab orted</w>
Pres entable</w>
s copes</w>
R O</w>
constan ts</w>
TH ING</w>
S SI
teri al</w>
UR ATION</w>
Sil ent</w>
Exemp lar</w>
ste p
KEY STORE</w>
men t
s co
Sche mes</w>
PREMI UM</w>
Ex ited</w>
implemen tation</w>
do able</w>
S sl</w>
Qu ad</w>
ALIGN MENT</w>
Si de
E igen
ABSTR ACT</w>
Ag re
subscri be</w>
sto gram</w>
A nt</w>
elap sed</w>
App earance</w>
VO LUME</w>
Dis k</w>
Al arm</w>
ck ets</w>
SE CUR
A mb
Tur ned</w>
MAN A
C ity</w>
U id</w>
val ent</w>
res ume</w>
Exp ir
deco der</w>
ch i</w>
TER S</w>
Archi val</w>
p it</w>
y thing</w>
F AT
COMPLE TED</w>
in cludes</w>
W t</w>
tt l</w>
n ul
form atted</w>
f oc
Po licies</w>
per missions</w>
dep loy</w>
d ays</w>
out putter</w>
print stream</w>
Se quences</w>
run s</w>
po m</w>
eng ths</w>
UP DAT
Invo ked</w>
Spr ing</w>
d ont</w>
f ull
FAT AL</w>
an other</w>
Pri vacy</w>
g ing</w>
re start</w>
TIC LE</w>
Monit oring</w>
lo ading</w>
INTEN DED</w>
x r</w>
Li kelihood</w>
tra iling</w>
PROVI DER</w>
synchron ous</w>
TE XT
dep ends</w>
C ells</w>
dig it</w>
ad ju
Top ics</w>
up da
SP EC</w>
K E</w>
Form at
PP AST</w>
A pri
D ont</w>
Con tain</w>
spa rency</w>
FIN AL</w>
Alter nate</w>
sol ution</w>
Acce ler
on e
bio mart</w>
Coun try</w>
J MX</w>
d t
st ors</w>
We ek</w>
CR Y
b w</w>
DI G
i face</w>
divi de</w>
se able</w>
loc ked</w>
Regi ons</w>
R FC</w>
INTER VAL</w>
sub j</w>
WINDO W</w>
D RO
loc ations</w>
ec ko</w>
agno stics</w>
contr ols</w>
R S</w>
Mi rror</w>
App let</w>
ip per</w>
si an</w>
ra f</w>
j cmb</w>
Do es</w>
e dy</w>
ST R</w>
to logy</w>
E ffective</w>
buf size</w>
re ments</w>
r h</w>
resol ution</w>
IG NOR
SECUR ITY</w>
Si m</w>
Hel lo</w>
Choo sable</w>
Per former</w>
x sl</w>
r ang
Build ing</w>
PO LIC
bas es</w>
U tf</w>
AN T</w>
Sy n</w>
ne s</w>
h an
ow ing</w>
s ources</w>
In st
draw able</w>
X SSF</w>
STAN D
repor ter</w>
N L</w>
B orders</w>
A ir</w>
trans mission</w>
c fw</w>
al k</w>
compati ble</w>
Se lec
F it</w>
dro id</w>
W ell</w>
Op en
An droid</w>
POLIC Y</w>
ver ifier</w>
proto type</w>
po jo</w>
Em itter</w>
oo p</w>
s ors</w>
Infin ite</w>
METRI C</w>
Beh avi
inter p</w>
Re placed</w>
FIN EST</w>
m ed</w>
Propo sals</w>
w m</w>
Th ree</w>
Co de
Ca mer
in ks</w>
LE SS</w>
sig ns</w>
In str</w>
Tur n</w>
P ing</w>
sq l
b ic</w>
Ge o</w>
MIN UTE</w>
pl atform</w>
te ch</w>
As sist</w>
ra ven</w>
Side bar</w>
ch ang
i fication</w>
g in
in ation</w>
dimen sions</w>
Parti cipant</w>
Le ave</w>
o i</w>
Coe fficients</w>
Wri tten</w>
CE LL</w>
Spec s</w>
A no
m ult</w>
sw t</w>
FI LES</w>
Y ING</w>
par m</w>
G ini</w>
Over lay</w>
o type</w>
j avadoc</w>
co ordin
MAR GIN</w>
e red</w>
Dis covery</w>
nam ing</w>
h op</w>
Inter pol
FOL DER</w>
ce stors</w>
e ting</w>
mapp ings</w>
TR U
IGNOR E</w>
A LOAD</w>
F lush</w>
Sw ap</w>
IN IT</w>
Vo te</w>
D ays</w>
d at</w>
SET TABLE</w>
Mi xed</w>
COMP I
o x</w>
b m</w>
Q name</w>
Pa ren</w>
lin ear</w>
A ge</w>
op tim
bl ank</w>
UN SETTABLE</w>
look ahead</w>
T W
G ray</w>
spli tter</w>
end ants</w>
men ted</w>
In direct</w>
z ation</w>
Wr ong</w>
x in</w>
form ats</w>
N EXT</w>
A synchronous</w>
W idths</w>
f unctions</w>
CH RO
Ab ort</w>
Equ ation</w>
c id</w>
S B</w>
neg ative</w>
ne arest</w>
ce eded</w>
Y axis</w>
Ste mmer</w>
BO DY</w>
ta n</w>
J do</w>
bl er</w>
j ac
i e
cumul ate</w>
pri m</w>
Li braries</w>
in f</w>
publ isher</w>
f tp</w>
I OU</w>
RE PORT</w>
mul ti
IC N</w>
en um
St ale</w>
d d
G ecko</w>
N av</w>
qu es</w>
l v</w>
m ech
Syn thetic</w>
c y
de ep</w>
Contin gency</w>
h h</w>
Pi ece</w>
invo ker</w>
De mo</w>
Cla zz</w>
Provi de</w>
h is</w>
S lash</w>
Sati s
com es</w>
c ycle</w>
ac tivities</w>
A ES</w>
pa use</w>
sc r
SY M
ab ul
Me mento</w>
v a</w>
Ste ms</w>
th ed</w>
Redirec ts</w>
ba is</w>
sm all</w>
CHANGE ABLE</w>
pk t</w>
key words</w>
id ing</w>
TI M
Comm a</w>
CUST OM</w>
IL ITY</w>
FINI SHED</w>
Success ful</w>
G ZIP</w>
B P</w>
V m</w>
di sts</w>
SU B</w>
m ech</w>
C BC</w>
inter ceptor</w>
ta nt</w>
Qu eu
abul ary</w>
tifi cations</w>
le ad</w>
de serializer</w>
u l</w>
fu ture</w>
cor relation</w>
PRE CI
B ytecode</w>
R pc</w>
M ule</w>
CLO SED</w>
SI G</w>
EQU ALS</w>
P OR
Apri ori</w>
in line</w>
Con form</w>
Bi rt</w>
AR TICLE</w>
L atch</w>
AST NULL</w>
sy m
INITI AL</w>
nex t
Le ading</w>
Re ach
pro t</w>
multip le</w>
i a</w>
comp ose</w>
Throw n</w>
the me</w>
boun dary</w>
n v
Gr ade</w>
Bl ack
Pol y</w>
analy zer</w>
ce p
CO PY</w>
RE MAIN
A c</w>
tran si
cal lbacks</w>
Neighb or</w>
CONFI G
B lu
cal lable</w>
exp ressions</w>
B O</w>
V T</w>
GRE ATER</w>
re wind</w>
tr un
pas te</w>
U int</w>
cluste rers</w>
S ock</w>
ver ted</w>
Asc ent</w>
q s</w>
I de</w>
EX IT</w>
P ur
Re fer
Y S</w>
Le ad</w>
op le</w>
W s
min utes</w>
inter section</w>
regi stration</w>
no tifier</w>
USE D</w>
Ano ther</w>
pa ren</w>
over ri
expec ts</w>
b n</w>
la zy</w>
cor rected</w>
Publ ished</w>
Camer a</w>
ind entation</w>
identi ties</w>
Bu iltin</w>
teg ies</w>
p atterns</w>
Shoo tist</w>
rela tionship</w>
Th ro
ad le</w>
Over ri
WOR K</w>
con v</w>
FAIL URE</w>
CON DI
Ti cks</w>
RE AL</w>
LEN AME</w>
STRING S</w>
m ts</w>
CHRO ME</w>
BAS E
i mated</w>
ta x
ne ural</w>
NO THING</w>
V ar
Pi pe</w>
m illis</w>
DEP TH</w>
ST OP</w>
In v</w>
ad d
GRO UP
DIRECT ORY</w>
dis p</w>
experi ment</w>
BR AC
t ls</w>
pres entation</w>
q res</w>
Prote ction</w>
Spo t</w>
Sn apshot</w>
DAT AB
te ly</w>
in sn</w>
high est</w>
Ori g</w>
Extr act</w>
D ONE</w>
r in
NE W
m is</w>
Look ups</w>
p o</w>
V AR</w>
th ird</w>
ti tude</w>
en o</w>
N once</w>
Retur ns</w>
ste ps</w>
boo k
Differen ce</w>
i ence</w>
an ces</w>
syn pred</w>
sw d</w>
descri ptions</w>
ti t
re tain</w>
h oo
R DF</w>
b ro
COMPON ENTS</w>
sh own</w>
N ON
o ve</w>
d und
tri angle</w>
sp here</w>
cap tcha</w>
B inder</w>
over ride</w>
max n</w>
cul ar</w>
B race</w>
Decomp osition</w>
de register</w>
PARE NT</w>
wi se</w>
tex ture</w>
jec ted</w>
r g
Conne c
Ca ster</w>
qui ck</w>
Cy clic</w>
Li ttle</w>
Sub class</w>
LI MIT</w>
AR FF</w>
MIN US</w>
trans formation</w>
Squ are</w>
ti ce</w>
Lex ical</w>
INVO KE
Cor rec
re cogn
SUF FIX</w>
Pas sed</w>
M p</w>
j asper</w>
comp ressed</w>
am ine</w>
Cap able</w>
MO USE</w>
Fe ed</w>
Pri me</w>
Co sts</w>
MAR Y</w>
B ER</w>
BE T</w>
gg ers</w>
p ath
indi cator</w>
ACTIV ITY</w>
sub tree</w>
AT Y
Inter pre
pi ck</w>
i v
Be g</w>
AC CE
privileg e</w>
ig r
DIA LOG</w>
pro to</w>
E NUM</w>
De vices</w>
Al ways</w>
TEMP LATE</w>
R C</w>
Predi cted</w>
OP T</w>
COMP O
ar ff</w>
eni um</w>
h ol
E ver
trans lated</w>
exp orter</w>
Te am</w>
Par ms</w>
r nd</w>
in tro
b andwidth</w>
en s</w>
j cl</w>
b ar
DISA BLE</w>
v ex</w>
hel lo</w>
Ad vanced</w>
c df</w>
S rv</w>
in jection</w>
rea ble</w>
Ca l</w>
Sub type</w>
li mited</w>
Reg ular</w>
G lobals</w>
di ms</w>
Multip lier</w>
Ad vance</w>
stro y
at ural</w>
CONC UR</w>
el lipse</w>
Scal ar</w>
ALI ZE</w>
RO UND</w>
inter cept</w>
Vi ol
Squ ares</w>
Ne t
al inks</w>
REMAIN DER</w>
b b
CONT RO
er a</w>
ti mize</w>
c ce</w>
Direc tories</w>
ill i</w>
C h</w>
I M</w>
il legal</w>
AD MIN</w>
Res p</w>
t x
g f</w>
ch o</w>
u al</w>
Sub space</w>
Foc used</w>
a w</w>
Wh ile</w>
z zy</w>
FI CATION</w>
co me</w>
stra tify</w>
PRECI SION</w>
r inging</w>
R PAREN</w>
COR E</w>
Shad ows</w>
Por tal</w>
ori ze</w>
h old</w>
B in
PRO TO
CHEC K
go to</w>
un set</w>
Con sequence</w>
Loc alizer</w>
Scri pts</w>
ft ware</w>
star t
f ri
l r</w>
Mu tation</w>
shad ow</w>
Te stable</w>
estim ator</w>
ro id</w>
As signed</w>
amp ler</w>
Po m</w>
SI DE</w>
SE QU
prin tf</w>
syn ch</w>
Uni form</w>
x i</w>
Recur sive</w>
Match ed</w>
He uristic</w>
lin eage</w>
en tly</w>
pro cedure</w>
T F</w>
inter vals</w>
ko ml</w>
el ist</w>
v able</w>
inter pol
LON G
ph i</w>
Cal lbacks</w>
BACK GROUND</w>
T ING</w>
deri ved</w>
s andbox</w>
DIREC TIVE</w>
posi tive</w>
P UT
D dl</w>
C umul
per sist</w>
m ag
app earance</w>
Out lier</w>
R oun
Ac quisition</w>
Subscri ber</w>
FI LENAME</w>
cap s</w>
SE TT
Con tinue</w>
MI TER</w>
vi ation</w>
ac q</w>
ln gs</w>
mi ts</w>
gorith ms</w>
Synta ctic</w>
Se l</w>
ter ritory</w>
MANA GER</w>
er ved</w>
cu be</w>
Un doable</w>
In cludes</w>
cre ator</w>
In heri
foc used</w>
bu s</w>
Op acity</w>
Spli ts</w>
H iding</w>
sol ve</w>
tri als</w>
fe at</w>
Z k</w>
Re ached</w>
RE S</w>
H ave</w>
TRANS ACTION</w>
j et</w>
S qr</w>
MA C</w>
Deleg ated</w>
Ca u
mo some</w>
Agre ement</w>
IMP LE
IS O</w>
Cumul ative</w>
un c
RE COR
D uplicates</w>
n u
jj tn</w>
fo reign</w>
f ld</w>
ch s</w>
Tr acking</w>
JO UR
J asper</w>
Initi alize</w>
fa cets</w>
e bi</w>
Ind entation</w>
Hand led</w>
oper ands</w>
e stimated</w>
An im
view port</w>
desc r</w>
SER I
c us</w>
am ino</w>
AR TI
n ll</w>
tt ps</w>
popu p
STRUCT URE</w>
Me tal</w>
gi b</w>
SVNU RL</w>
J ps</w>
to day</w>
k b</w>
gr am
VO ID</w>
Synchron ized</w>
JOUR NAL</w>
smoo thed</w>
j pf</w>
EX EC
I STR
I CE</w>
EX TR
Deri v
Dep ths</w>
Boo tstrap</w>
mber ships</w>
hyp er
D e</w>
fin al
pres ent</w>
Gro uping</w>
v x</w>
Pic ker</w>
O sm</w>
Ev en</w>
bi as</w>
par tment</w>
analy sis</w>
manag ed</w>
RO C</w>
n ano</w>
im ize</w>
DE LAY</w>
our nal</w>
Fa ce</w>
F Y</w>
m agic</w>
Me ter</w>
K ER</w>
Ne w
DISPO SE</w>
Ch unks</w>
t or
check sum</w>
S MS</w>
H IG
BL UE</w>
b io</w>
aw ait</w>
ad dm</w>
SIGN ATURE</w>
M ult</w>
at on</w>
R T</w>
C t</w>
W he
E stimated</w>
cl oud</w>
s rv</w>
ANTI ALI
si oned</w>
bo t
angu ages</w>
G c</w>
DAT ATY
il ures</w>
MEN U</w>
Estim ate</w>
al led</w>
G MENT</w>
al lback</w>
Substitu tor</w>
e ars</w>
comm unity</w>
NEE DED</w>
Ac tuator</w>
State ful</w>
S AM
U AL</w>
As signs</w>
L C</w>
< -</w>
ab ove</w>
b j</w>
pol ling</w>
C vs</w>
te l</w>
En ded</w>
ALGORITH M</w>
J LS</w>
J D</w>
ar te
non decimal</w>
li ze</w>
cap s
la test</w>
esc ience</w>
I A</w>
decor ate</w>
ro les</w>
pla ce
l w</w>
Sh owing</w>
m u</w>
g ate</w>
Lin k
min ate</w>
Bran ches</w>
pa ired</w>
l l
aliz ers</w>
r adi
in ated</w>
br acket</w>
LO B</w>
C pu</w>
B IG
Th ere</w>
in ject</w>
c br</w>
jo ins</w>
Voc abulary</w>
F U
fe ed</w>
popup thread</w>
EN TER</w>
Rep lication</w>
ven tory</w>
ech o</w>
ou se
S ORT</w>
Neighb ours</w>
mech anism</w>
injec tor</w>
Tempor ary</w>
SYM BO
mo ds</w>
t als</w>
p y
ad o</w>
LE G
Encod ings</w>
DE UI</w>
DB ID</w>
st a</w>
pa irs</w>
gro uping</w>
Wr apping</w>
en ac
dund ant</w>
Highligh ting</w>
IC PPAST</w>
av as
exp licit</w>
bu sy</w>
ID L</w>
sub st</w>
Configur ations</w>
v i</w>
Co vered</w>
r set</w>
Fix num</w>
Di alect</w>
Tre es</w>
Format ting</w>
Proto buf</w>
sp lash</w>
G T</w>
ka i
RA M</w>
E Q</w>
n ws</w>
Tra ffic</w>
re h
inter sect</w>
ri tories</w>
FIE L
Over flow</w>
u is</w>
DB NAME</w>
lic ense</w>
Coordin ate</w>
decryp ted</w>
Inter section</w>
scal ed</w>
di gester</w>
AM S</w>
AS H
imp licit</w>
M un
l pc</w>
I V</w>
G A</w>
highli gh
rec ent</w>
be an
Ev als</w>
INCLU DE</w>
id i</w>
Associ ations</w>
R r</w>
P AN
TW O</w>
Sy m
Rol lback</w>
RO W
n m</w>
stati stics</w>
SHA PE</w>
B LED</w>
JS P</w>
k ill</w>
E L
K er
Ca ption</w>
ti ble</w>
at t
di stinct</w>
Im s</w>
J L</w>
t lement</w>
e ol</w>
o th
S al
n av</w>
a tile</w>
g m</w>
USER NAME</w>
RA P</w>
ip ad
publ ished</w>
j pa</w>
inter mediate</w>
DT M</w>
l y
Evalu ate</w>
h n</w>
une able</w>
identi fied</w>
Cy cles</w>
ad cast</w>
se ss</w>
Pr uneable</w>
NOR TH
cli pboard</w>
b x</w>
stand ard</w>
Poly no
on ing</w>
Li ke</w>
v d</w>
j vm</w>
AUT O
SV GO
v ctx</w>
re mo
iz able</w>
Vol atile</w>
po se</w>
W RAP</w>
D ur
Sy mbolic</w>
cre ation</w>
Substitu tion</w>
Sco reable</w>
sp read
n rows</w>
and roid</w>
Whe el</w>
PAR T</w>
CONT IN
th umb</w>
las sian</w>
A ffected</w>
o v</w>
ab c</w>
CONFI RM
RE Q</w>
Intro spector</w>
SE MI</w>
ig uous</w>
in stalled</w>
h ow</w>
ver tices</w>
it tee</w>
Con di
so pt</w>
c p
fe edback</w>
Norm alization</w>
IN CRE
Fa ke</w>
n cols</w>
C rosstab</w>
ren dered</w>
R PC</w>
N b</w>
ch ro
break point</w>
estim ate</w>
Tr ansp
STAT EMENT</w>
ro s</w>
OP TIONS</w>
M at
C sv</w>
ti dx</w>
po wer</w>
pre ference</w>
Conver ters</w>
p ds</w>
em f</w>
Ren derers</w>
S K</w>
GEN ERIC</w>
PROCES SOR</w>
IN ST
e igen
P DEUI</w>
Co lo
s lope</w>
Quo ted</w>
recur sive</w>
f asta</w>
Sign atures</w>
Pa use</w>
cal ly</w>
gr ant</w>
DESCRIP TOR</w>
BU IL
L and</w>
Custom er</w>
HAND LER</w>
REG ISTR
il o
conver ged</w>
man y</w>
w ell</w>
desc endant</w>
pla in</w>
E VALU
l ab
Pi ck</w>
Assem bly</w>
RE PL
distribu tions</w>
Appro val</w>
I O
te ts</w>
h p</w>
de a</w>
Typ ical</w>
A IC</w>
I LY</w>
Big dec</w>
M il
C ARD</w>
at tribs</w>
DISA BLED</w>
N on
Ne cessary</w>
or table</w>
ir a</w>
O dd</w>
le e</w>
x max</w>
b y
T L
Sub mit</w>
Sc enario</w>
assign ments</w>
Comp ressed</w>
arte mis</w>
F B</w>
fol low</w>
T ax
Ad just</w>
me ta
i pu
we apon</w>
tex t
qu anti
Rid ge</w>
Measu rement</w>
V el
Ch oices</w>
form ula</w>
a k
Ever ything</w>
lar ge</w>
en cy</w>
Sp here</w>
GENER ATED</w>
confi dence</w>
Br acket</w>
tiv alued</w>
asp ec
inter n</w>
un pruned</w>
build ing</w>
K th</w>
ur s</w>
work flows</w>
W atch
RE N
u s
f id</w>
Di stinct</w>
gra debook</w>
Un set</w>
ca ten
SE MI
G CM</w>
Comm itted</w>
cla s</w>
lay ers</w>
con sequences</w>
cal led</w>
E vol
Cat alogue</w>
Al ph
Constr uct</w>
ac curacy</w>
I o</w>
V al
C TED</w>
m acro</w>
d w</w>
Me th</w>
gg ing</w>
back end</w>
no c</w>
lap top</w>
H DR</w>
Bl ack</w>
Fa ces</w>
Copi ed</w>
x imate</w>
in co</w>
i ters</w>
cen ters</w>
S le
De ep
loc als</w>
rec order</w>
IM UM</w>
DO WN
spread sheet</w>
o e</w>
J VM</w>
HE AD</w>
St rength</w>
jj tree</w>
reg exp</w>
g sh</w>
x dr</w>
san ger</w>
G O</w>
b or
Quo tes</w>
dat ing</w>
tru sted</w>
Th ickness</w>
Th ang</w>
CONNEC TIONS</w>
prob ability</w>
supp ress</w>
di agnostics</w>
Comm un
n ature</w>
j a</w>
dt de</w>
Per form</w>
rea t</w>
Vel ocity</w>
il ity</w>
exp lanation</w>
Star ting</w>
el im
u ation</w>
to pe</w>
Rol ap</w>
M ass</w>
in cluded</w>
QU EST</w>
un resolved</w>
g name</w>
SIGN ED</w>
qu ality</w>
j obs</w>
Invo k
In ts</w>
Back off</w>
LE A
buf line</w>
Pas te</w>
cal ls</w>
Expec tation</w>
speci fied</w>
MESSA GES</w>
Cal ler</w>
i stream</w>
i k</w>
pl ane</w>
K on
se par
Mo st</w>
J U
COMP RES
QU ALI
Di et</w>
erarch ical</w>
ma u</w>
igr ation</w>
stri ct</w>
SEQU ENCE</w>
O val</w>
g ular</w>
Se m</w>
Mar gins</w>
Col on</w>
neg ation</w>
Disp osition</w>
k ids</w>
La test</w>
Bu s</w>
to ta</w>
Proto s</w>
BU ILD</w>
STR A
f b
DATATY PE</w>
DE N</w>
po chs</w>
ap pers</w>
Pro v</w>
J ax
view mode</w>
u c</w>
sal ary</w>
Si mil
SCRI PT</w>
Craw led</w>
stu dent</w>
AD DING</w>
O L
F FF</w>
h k</w>
en crypt</w>
mu tex</w>
Remo val</w>
Ws dl</w>
Reg exp</w>
ag ed</w>
Weigh ting</w>
Produ ce</w>
Lo aders</w>
f un</w>
J dk</w>
D ra
l ue</w>
O ql</w>
SEMI COLON</w>
X mi</w>
Fil tering</w>
CONFIRM ED</w>
sec ret</w>
min prob</w>
Loc k
se m</w>
ad r</w>
E K</w>
ref er
q c</w>
D str</w>
C tor</w>
Comp at</w>
p has</w>
me ter</w>
Sub jects</w>
EX TER
to ff</w>
Restri cted</w>
Res ampling</w>
Fri end</w>
g nu</w>
synta x</w>
su spend</w>
relev ant</w>
auth orization</w>
pro v</w>
AL T</w>
un g</w>
ne t
loc ks</w>
SVGO M</w>
Sli de</w>
R and</w>
RESOL VED</w>
ad oop</w>
o minator</w>
C CM</w>
Eli minate</w>
Pi x</w>
GENER ATOR</w>
mi m</w>
Cre w</w>
ALPH A</w>
instanti ated</w>
L at</w>
SC RE
Per si
P AD</w>
Be tter</w>
our ce
ad s</w>
Av atar</w>
C u</w>
di agnostic</w>
LI SH</w>
O FF</w>
GRE EN</w>
coe ffs</w>
Acceler ator</w>
ED T</w>
as l</w>
I X</w>
i h</w>
ath er</w>
pa y
Estim ators</w>
mi tives</w>
stu ff</w>
is ed</w>
E DIT</w>
M illi</w>
cam era</w>
F E</w>
res erved</w>
men u
e i</w>
S pri
squ are</w>
ment um</w>
S andbox</w>
P ython</w>
RESOL VE</w>
Gra debook</w>
A synch</w>
O da</w>
Dele tion</w>
tre es</w>
expi red</w>
EXP R</w>
ce dence</w>
TI C</w>
ag g</w>
pre fixes</w>
x h</w>
en crypted</w>
sy mantic</w>
r sp</w>
R ipper</w>
NEW LINE</w>
P lan
Net scape</w>
i or</w>
WE IGHT</w>
Inheri tance</w>
in form</w>
fo reground</w>
Leg acy</w>
J tds</w>
grid height</w>
Repe ated</w>
chec ks</w>
Gri dy</w>
UL TS</w>
Organ ization</w>
F on
LI BR
de leg
Ev t</w>
n r
DE L
dec ision</w>
un indent</w>
SC ALE</w>
E P
Log out</w>
graph ic</w>
J C</w>
PRO BLE
O mit</w>
f amily</w>
N IL</w>
Li gh
Cre di
laun cher</w>
g reater</w>
B old</w>
db env</w>
Prox ies</w>
Di v</w>
sp ot</w>
top ics</w>
local ctx</w>
SP AC
Di al</w>
activ ation</w>
WE IG
P q</w>
Norm alized</w>
B ul
transp ose</w>
TOP IC</w>
Conver tor</w>
b rains</w>
a ff
RI X</w>
Ca ses</w>
sel enium</w>
M ast</w>
In complete</w>
E cho</w>
p an
MI R</w>
COMPI LER</w>
MAT RIX</w>
visi ons</w>
Build path</w>
comp s</w>
SE CTION</w>
IMP ORT</w>
sec ure</w>
Sav epoint</w>
Acce ptor</w>
ex cluded</w>
EC TED</w>
Attribu ted</w>
per formance</w>
back off</w>
av ing</w>
cross ings</w>
tax on</w>
a h
C ross
provi de</w>
sk ipped</w>
persiste nt</w>
Star ts</w>
schedul er</w>
marsh all</w>
q n</w>
De stroy
Or dering</w>
car dinality</w>
c n
i w</w>
in es</w>
Mi ss</w>
x d</w>
re mainder</w>
lex ity</w>
D ri
oc ks</w>
jet brains</w>
me mento</w>
gri ty</w>
Inte grity</w>
tch er</w>
d q</w>
Resi zed</w>
me ans</w>
Comp s</w>
fi eld
FI XED</w>
B ank</w>
ce ab</w>
ho sts</w>
RE VERSE</w>
x ceab</w>
pl an</w>
ch oices</w>
Recor ding</w>
ME TA</w>
expec tation</w>
vi e</w>
OP EN
al one</w>
Scrol lable</w>
ST EP</w>
il ability</w>
b buf</w>
parti cle</w>
ex amine</w>
cri pt</w>
R b</w>
PRO CESS</w>
Ma terial</w>
X id</w>
W ill</w>
CHAN NE
p itch</w>
RE TRY</w>
comb ine</w>
Subscri be</w>
ffff fe</w>
Chro me</w>
h d</w>
H igh
Deli very</w>
P F</w>
EVALU ATION</w>
Re action</w>
Q NAME</w>
NO DES</w>
DE SC</w>
H y
O US</w>
I so
G uid</w>
G PR</w>
sh apes</w>
Enti tlement</w>
Tru ststore</w>
T s</w>
Dr agged</w>
s buf</w>
L on</w>
lin e
On tology</w>
Al gorithms</w>
Comb ination</w>
yp o
Pres erve</w>
mar ked</w>
TT L</w>
NORTH WEST</w>
le phone</w>
c ach
Ph o
Favour ites</w>
s dk</w>
mp li
synta ctic</w>
al ty</w>
Fu zzy</w>
vec y</w>
n il</w>
Fri ends</w>
ss es</w>
subscri ber</w>
Suc cessor</w>
Ra ces</w>
the key</w>
id h</w>
Char ge</w>
mi um</w>
SQ L
un cover</w>
For ms</w>
rou ter</w>
analy ze</w>
Simul tan</w>
bu m</w>
In cl</w>
R BF</w>
Fr agments</w>
Chang ing</w>
Rel o
l q</w>
Manag ers</w>
CH O
u a</w>
Up grade</w>
In stalled</w>
E mb
mm ed</w>
en ames</w>
M ine</w>
per centage</w>
e i
Hi stogram</w>
ID P</w>
D sf</w>
un ary</w>
decryp t</w>
P D
M y
b ars</w>
Sub s
B RE
pol y</w>
RU N</w>
re define</w>
acce pted</w>
P r</w>
mi ss</w>
avas cript</w>
M Y
TA VER
MAR K</w>
W HE
constr uctors</w>
Go to</w>
C r</w>
pro ceed</w>
attach ment</w>
AD DED</w>
ST AR</w>
k er
Pre condition</w>
Java c</w>
ID ENT</w>
to s</w>
XS LT</w>
Sen tence</w>
Can didates</w>
ene my</w>
cu st</w>
RECOR D</w>
H ot</w>
key code</w>
j ira</w>
Mod al</w>
DI AG
Comm ittee</w>
Adju sting</w>
prin ted</w>
TAVER NA</w>
Ob jective</w>
PO P</w>
j ump</w>
W I
Repe ti
Cau ght</w>
spa rent</w>
WA YS</w>
si ble</w>
h c</w>
f ying</w>
MEN TAL</w>
PAR SER</w>
F TP</w>
Ad vi
ffec ts</w>
fr action</w>
Su ites</w>
Di alogs</w>
Comp osed</w>
Me mberships</w>
In set</w>
h ta</w>
Quanti ty</w>
wri tten</w>
Selec table</w>
Ho ver</w>
C ou
sub graph</w>
ch allenge</w>
j ribble</w>
id pp</w>
REL ATIVE</w>
PRO FILE</w>
OPER ATOR</w>
se quent</w>
ex ist</w>
am ed</w>
R B</w>
o ser</w>
Ver ification</w>
CHAR AC
pro x
Invok ations</w>
Gener ics</w>
at lassian</w>
B r</w>
LO B
Authenti cate</w>
STR I
V er</w>
AL WAYS</w>
ar ded</w>
I ts</w>
db f</w>
T uples</w>
Boun ding</w>
For k</w>
prin ts</w>
Par m</w>
wh itespace</w>
que s
n one</w>
AR GS</w>
bl ings</w>
atch es</w>
LOG IN</w>
In tro</w>
Ho stname</w>
CON STRA
tit les</w>
Identi ties</w>
ro ut
dri an</w>
Match ers</w>
AN G
cap ture</w>
li ve</w>
Mic ro</w>
In her
i q</w>
back ward</w>
LR U</w>
C mp</w>
par allel</w>
out file</w>
j e</w>
fi g</w>
bas eline</w>
at uses</w>
um i</w>
tar y</w>
uni verse</w>
Polyno mial</w>
ad vice</w>
Sp read</w>
high er</w>
gro ovy</w>
y ield</w>
s lots</w>
Go al</w>
H DF</w>
ma g</w>
valid ated</w>
suc ceed</w>
TI ON
con tin
Ref lect</w>
E ne
BE GIN</w>
u cted</w>
K o
I FS</w>
c cb</w>
ECT OR</w>
D H
P URE</w>
COMP IL
Deep a</w>
at temp
MA G
p et</w>
OR I
Me hta</w>
Pic ture</w>
M ounted</w>
Occurren ces</w>
RE LE
Gr ading</w>
QU O
Occur red</w>
rout ine</w>
Stream able</w>
Ag enda</w>
c c
class names</w>
ad vanced</w>
K B</w>
CON STRUCT
LAN GU
Ch a
Bu ffers</w>
Enumer ated</w>
classi fied</w>
lic a</w>
F umi</w>
ti cally</w>
Contribu tor</w>
ss o</w>
sn ap</w>
p es</w>
Poo led</w>
en g</w>
Re store</w>
S ampler</w>
n sc</w>
acce ptable</w>
Stu dent</w>
re ject</w>
Sig ma</w>
Dis connect</w>
i pe</w>
d h
PROBLE M</w>
HT T
Sc ene</w>
PROCES SING</w>
rec ipient</w>
UN AVAILABLE</w>
ex cludes</w>
P w</w>
w idths</w>
ch ors</w>
Popu late</w>
A w</w>
PARE N
produ ce</w>
o stream</w>
SI S</w>
Con s</w>
Se per
k ai</w>
g anism</w>
Over view</w>
ffff ffff
al ways</w>
can t</w>
Activ ated</w>
DATAB ASE</w>
ar ds</w>
D f</w>
Man ipu
HO ME</w>
fre quency</w>
Gre edy</w>
EXTR A</w>
se ss
re call</w>
Re pos</w>
Mil li
c ing</w>
m g</w>
P ADDING</w>
S L
ind x</w>
ST U
scal ing</w>
scal a</w>
TR YING</w>
Applic ations</w>
DELI MITER</w>
Sol ver</w>
l abeled</w>
En han
d fs</w>
Hoo ks</w>
Bo xes</w>
f ully</w>
P v</w>
Ign oring</w>
th resh</w>
C LE</w>
ie tly</w>
Under lying</w>
C fg</w>
Be vel</w>
de le
Qu ietly</w>
Craw ler</w>
c nfe</w>
TH READ</w>
Deta iled</w>
In ds</w>
i ste
K NN</w>
B ILITY</w>
in serted</w>
an try</w>
Up loaded</w>
In active</w>
tur nout</w>
spec if
es tions</w>
tre me</w>
sub sets</w>
bati k</w>
Behavi our</w>
Search es</w>
SP E
Acce ssibility</w>
L AR
E ar
MEDI UM</w>
Sin ce</w>
vi deo</w>
p lan
Gr adle</w>
COMPIL ATION</w>
A RE
Re lev
man tics</w>
ber os</w>
c tive</w>
book mark</w>
PROTO COL</w>
pro d</w>
Z Z</w>
P in</w>
min i
ELE M</w>
I XML</w>
Ter ritories</w>
x min</w>
ren derers</w>
co mo
P D</w>
f lavors</w>
cred entials</w>
Balan ced</w>
h ours</w>
SU M
IT AL
m ds</w>
ob tain</w>
D er</w>
op acity</w>
Un configured</w>
Satis fied</w>
m ic
scr atch</w>
extr as</w>
VAR BINARY</w>
de vs</w>
at ory</w>
PO ST
stal lation</w>
P NG</w>
C Y</w>
Acce pted</w>
o mial</w>
Sh ader</w>
multip lier</w>
P M</w>
AC TIONS</w>
compu ted</w>
R hs</w>
I W</w>
H ql</w>
comp lexity</w>
Speci fiers</w>
i table</w>
ac b</w>
as c
U TION</w>
Pe ople</w>
DE CO
dat as
S Q</w>
T oc</w>
I sol
DE ST</w>
ac cessor</w>
Pre mise</w>
B AN
W c</w>
w nd</w>
mil li
Cur rency</w>
i ssue</w>
ar k</w>
Attach ments</w>
lo gs</w>
MAN Y</w>
AS SO
mi les</w>
et ch</w>
te sted</w>
READ Y</w>
QU E
M id</w>
I s
Book marks</w>
loc ker</w>
comp iled</w>
IN SENSITIVE</w>
vol ume</w>
Compu ter</w>
cas ter</w>
M AC
TER M</w>
m ule</w>
j i</w>
G round</w>
typ ename</w>
to b</w>
scan w</w>
EN T
J AR</w>
on daries</w>
Dis able</w>
DI V</w>
tran sition</w>
p star</w>
in correct</w>
contr act</w>
V alued</w>
Confi gs</w>
TH RE
aggreg ate</w>
Automa tic</w>
Dec ryp
Com mented</w>
Atta ch</w>
Back end</w>
FOC US</w>
t si</w>
T D</w>
h r</w>
CHANNE L</w>
Ref er</w>
LE T
LIBR ARY</w>
Hi erarchical</w>
emb ed</w>
persiste nce</w>
Roo m</w>
M ER
TEMP OR
Requi rements</w>
Sub mission</w>
WAR N</w>
inde xed</w>
d le</w>
c raw
ir o</w>
confi gs</w>
Rec order</w>
ori al</w>
defini tions</w>
AC COUNT</w>
pro te
Neighb ors</w>
BRAC KET</w>
Rel i
MILLI SECONDS</w>
Finger prints</w>
neg ate</w>
as y</w>
P lay</w>
Break points</w>
I tf</w>
Consum ed</w>
ver sions</w>
MO D</w>
Ac curacy</w>
AC L</w>
hoo k</w>
sm allest</w>
s alt</w>
jj te</w>
LANGU AGE</w>
invo ked</w>
Contr ol
to l</w>
na tives</w>
h ints</w>
N ER</w>
V l</w>
LE T</w>
Compar tment</w>
Mon drian</w>
G lue</w>
o ts</w>
token ize</w>
TRU ST
J ribble</w>
MUL TI</w>
ma in
work book</w>
ac l</w>
De ferred</w>
w alk</w>
extr actor</w>
Interpre tation</w>
ma ven</w>
as sess
deli very</w>
ec ore</w>
D FS</w>
Cur r</w>
buf column</w>
Sp ans</w>
Reach ability</w>
ti mis
inter sec
be gin
qu ad</w>
injec ted</w>
ch at</w>
li ers</w>
INITI ALIZ
J et
Wi de</w>
Decor ation</w>
B rea
R A</w>
v alu
fin der</w>
Col li
File system</w>
z k</w>
Cach es</w>
Sm oo
PER SPEC
Loc o</w>
t w
Sour ced</w>
G F</w>
rec v</w>
me thing</w>
Par cel</w>
b elt</w>
specif ic</w>
IM G</w>
Exp lanation</w>
j itter</w>
de b</w>
DO MAIN</w>
SCRE EN</w>
ren ce</w>
logg ed</w>
confi rmation</w>
Ava ilability</w>
mi rror</w>
e mployee</w>
dep loyment</w>
ci r
Sec tions</w>
or ph
Max s</w>
z en</w>
P lots</w>
Ene my</w>
DEL TA</w>
fa ke</w>
alle lize</w>
D up</w>
ta t</w>
se ssions</w>
predi cates</w>
Re trieve</w>
s on
low ing</w>
Z er
Fon ts</w>
Ab sent</w>
Sle ep</w>
pi pe</w>
Sp e
CONSTRUCT OR</w>
final link</w>
EN G
BRE A
app let</w>
CRY PT</w>
BO UN
pres erve</w>
alis ation</w>
r w
l at
T db</w>
g v</w>
Restri ctions</w>
x e</w>
ord inary</w>
m n</w>
N PC</w>
sc p</w>
recur sion</w>
ST S</w>
Pa ired</w>
M C</w>
CONTRO L</w>
S mi</w>
u tions</w>
un signed</w>
BO UND</w>
o sg</w>
ab et</w>
teri on</w>
fac tories</w>
Post fix</w>
uni code</w>
t ted</w>
asc ending</w>
G row</w>
D mc</w>
Ter rain</w>
T cp</w>
Me n
f ooter</w>
Ch oose</w>
lin eno</w>
par ms</w>
Or d
Tri ple</w>
At oms</w>
cluste ring</w>
Down loader</w>
Initialis ed</w>
bot vals</w>
posi te</w>
PK IX</w>
to red</w>
Hash belt</w>
E T
el y</w>
Unsatis fied</w>
Thro ttle</w>
S DK</w>
load s</w>
tion ships</w>
f h</w>
DE TA
MI SSION</w>
im o</w>
DH E</w>
tou chable</w>
S id</w>
dat alinks</w>
Transi t</w>
Pa y
K P</w>
rin kage</w>
Stre et</w>
LE N</w>
si tes</w>
i map</w>
ST ER</w>
El lipse</w>
look back</w>
D UP</w>
i tal</w>
Download link</w>
TO TAL</w>
BR ACE</w>
hi bernate</w>
Colle ctors</w>
SOL ID</w>
p end</w>
in divi
Con siste
Place holder</w>
doc u</w>
como tive</w>
Prin table</w>
Instr umentation</w>
aph ore</w>
S up</w>
g g</w>
HTT PS</w>
FRA GMENT</w>
CA PE</w>
pas swd</w>
an onymous</w>
S DI</w>
Spri te</w>
Mid dle</w>
ES CAPE</w>
CONDI TION</w>
g le
S sh</w>
Coun ters</w>
x or</w>
smoo th</w>
Expo sed</w>
sec s</w>
TEXT URE</w>
j cb</w>
g res
p v</w>
Tran sparency</w>
Le ar
gr ams</w>
edi r</w>
WE EK</w>
Privileg es</w>
Res ume</w>
ID DEN</w>
COMPO SITE</w>
restri cted</w>
peri or</w>
ff ff</w>
ea aa</w>
PRI MARY</w>
As si
IC K</w>
ow l</w>
EXTER NAL</w>
EN ABLE</w>
VI RT
so ft</w>
Min utes</w>
C index</w>
re al
For um</w>
ss a</w>
Off screen</w>
Al lows</w>
ag er</w>
H ere</w>
assess ment</w>
Rand om
ro t</w>
comm itted</w>
b yte
Ag ents</w>
m en</w>
fi x
X P
S N
qu eries</w>
ro ad</w>
S WIT
ques tion</w>
Ur n</w>
LIN EAR</w>
hyper link</w>
ENG LISH</w>
re fe
Ro i</w>
temp or
IL ING</w>
Bal ance</w>
ref er</w>
q p</w>
ch ing</w>
EXCLU SIVE</w>
tru ststore</w>
p wd</w>
ME TA
C X</w>
Refer r
Ac cess
Boo st</w>
An imated</w>
di tive</w>
dete ct</w>
exp ir
SH E
M B</w>
I R
Chro mosome</w>
Be ing</w>
tre e
L on
Compu ted</w>
Re start</w>
zi er</w>
trun cate</w>
read able</w>
Re tries</w>
PO A</w>
IC AL</w>
alter nate</w>
ra ise</w>
SA VE</w>
Constr uction</w>
CLAS SI
re tri
X ml
LEG AL</w>
F lavors</w>
P id</w>
re vo
neighb ours</w>
Under line</w>
stan t</w>
e k
A J</w>
i ss</w>
fl at
z os</w>
tur b</w>
NOR M
p ly</w>
Stati stic</w>
no t
cli ent
op timize</w>
Ad jac
S ti
N E</w>
boo t</w>
PERSPEC TIVE</w>
sta tion</w>
D st</w>
f un
con tribu
Repeti tions</w>
tifi ed</w>
pro visi
Dra wer</w>
PAS S</w>
k nots</w>
trans lation</w>
T IN
Fre quent</w>
Li fe</w>
ITAL IC</w>
Sig ning</w>
Destroy ed</w>
J ython</w>
Imp orter</w>
nv ae</w>
ch a
Scal ing</w>
EX IST
Decor ated</w>
PRO X
sub b</w>
q k</w>
RE F
RE AL
E s
T ok</w>
Ca p</w>
timis tic</w>
du als</w>
ali st</w>
Clo sest</w>
eng er</w>
h o</w>
and line</w>
STAND ARD</w>
I ST</w>
E O</w>
F n</w>
R adi
Cir cle</w>
BO OK</w>
sur face</w>
cap abilities</w>
c buf</w>
al location</w>
Differen ces</w>
f ro
Ad van
S DP</w>
In ject</w>
Ca teg
imp lements</w>
NE T
ti cket</w>
Exp orted</w>
dm n</w>
PRE S
in formation</w>
DRO P</w>
Fi ss
tool tip</w>
IN K</w>
ob servers</w>
col lected</w>
Con flicts</w>
and atory</w>
Wh ole</w>
Visu alizable</w>
Regi str
associ ation</w>
tri p</w>
Pro g</w>
p ct</w>
ip n</w>
PRI MI
Multi part</w>
s ou
Pk g</w>
v cs</w>
REMO VED</w>
Re define</w>
re ach
c st</w>
res ample</w>
St ock</w>
S low</w>
CH ILD
E le
out comes</w>
in ds</w>
Process es</w>
ta g
Loc alization</w>
MAR KER</w>
Un supervised</w>
AL F</w>
ma ins</w>
d on</w>
B f</w>
A DED</w>
en ted</w>
z a</w>
Poly line</w>
N I</w>
in de</w>
Fiss ures</w>
re versed</w>
b re
G AP</w>
vo te</w>
mer ger</w>
lo ver</w>
Disp lay
B owl</w>
Ad dition</w>
H adoop</w>
Ac tivities</w>
XML DB</w>
De tected</w>
SUB SCRI
radi x</w>
rea s</w>
e per</w>
p in</w>
Enac tments</w>
ga ar</w>
VIRT UAL</w>
KEY S</w>
I J</w>
Bas is</w>
s lt</w>
Sur round</w>
ro om</w>
stop ped</w>
inter rupted</w>
IL LEGAL</w>
ta r</w>
C D</w>
an not</w>
L r</w>
IMPLE MEN
h buf</w>
per spectives</w>
Un assigned</w>
As signer</w>
n cp</w>
Nul l
AC Y</w>
FI LE
Con tribution</w>
Sta tion</w>
p idx</w>
on y</w>
In fix</w>
WEIG HT
h e</w>
ag eable</w>
In dx</w>
elim inated</w>
BIG INT</w>
ver e</w>
pi ece</w>
ER E</w>
B I</w>
e ta</w>
Exp and
authenti cate</w>
WHE N</w>
De ad
resp ond</w>
ac ros</w>
Te l</w>
EXP ECTED</w>
tou ch</w>
s ound</w>
Re served</w>
stri de</w>
p seudo</w>
p gp</w>
c w
re con
RE P
q o</w>
SM AL
Mer ger</w>
DAT E
To tals</w>
Fol ding</w>
OP C</w>
pr s</w>
Propo sed</w>
Imp lements</w>
pag ate</w>
o ffer</w>
initi alization</w>
MAG IC</w>
mo dul
ci se</w>
BASE LINE</w>
Declar e</w>
f oos</w>
Dis p</w>
Inst aller</w>
t on</w>
Li me</w>
si tor</w>
k array</w>
M s
ip pet</w>
sche mas</w>
ex act</w>
b ber</w>
Identi fication</w>
h y
M DI</w>
E asy</w>
L anguages</w>
UL AR</w>
LO ADED</w>
p asswords</w>
N anos</w>
IS ON</w>
E mp
Auth orized</w>
mark ers</w>
AC CUR
o ql
up vals</w>
id p</w>
VER AGE</w>
indivi dual</w>
Ne ed</w>
c um</w>
as pace</w>
P ure</w>
Inter active</w>
pr nts</w>
fr actional</w>
D RI
cop ed</w>
co vers</w>
path name</w>
le a
am ble</w>
M DL</w>
Initialis ation</w>
x form</w>
custom izer</w>
W P</w>
bu gs</w>
ou tline</w>
k builder</w>
bu ndles</w>
Queu ed</w>
CONFIG URATION</w>
z ip
j ority</w>
h v</w>
db d</w>
c rc</w>
as ing</w>
Inter sect</w>
sen tence</w>
RO I</w>
M an</w>
Mul tivalued</w>
d se</w>
num bers</w>
loc ated</w>
l vl</w>
adju sted</w>
G LOB
p nl</w>
ch unks</w>
f k</w>
G es
M igration</w>
over write</w>
Sum s</w>
c b
Tri angle</w>
An n
ack ed</w>
WE B</w>
D GE</w>
i ris</w>
chec ker</w>
In s</w>
RESTRIC TED</w>
Co py
den ominator</w>
regi ons</w>
Coun ting</w>
Enumer ate</w>
war ds</w>
T ASK</w>
Di alogue</w>
Coun ted</w>
fon t
RE ACH
F ood</w>
CLAS SES</w>
L n</w>
ow ner
Su spend</w>
C rl</w>
TEMPOR AR
pur ge</w>
con flicts</w>
TH IS</w>
por tal</w>
modi fication</w>
st mp</w>
custom er</w>
Rou ting</w>
so aplab</w>
h ar
Re aders</w>
Auto store</w>
ste mmer</w>
co dec</w>
IN C</w>
ig en</w>
cre ating</w>
THRE SHO
i b</w>
Col lect</w>
Co d</w>
sol r</w>
si on
rela tions</w>
rec c</w>
a xes</w>
In sertion</w>
r tn</w>
k nowledge</w>
end ents</w>
P seudo</w>
reque sts</w>
ac l
P AC
META DATA</w>
In verted</w>
Com m</w>
s ource
ipi ents</w>
cen tury</w>
Pro be</w>
n ipn</w>
Tim ing</w>
TEMPORAR ILY</w>
trac ing</w>
Re fe
de gree</w>
w est</w>
RUN NING</w>
UN ARY</w>
desc ending</w>
T ray</w>
q d</w>
on ic
PRO TE
O B</w>
Desc ent</w>
I dea</w>
De ad</w>
COMPLE X</w>
ri ft</w>
FO RE
ss can
predi ct</w>
gue ss</w>
ag ger</w>
S lave</w>
N C</w>
INCLU SIVE</w>
D er
t j</w>
Multi cast</w>
disp atcher</w>
ST ER
De ps</w>
e id</w>
WH ITE
jd k</w>
x ity</w>
Comple xity</w>
lar s</w>
Ca t</w>
mm l</w>
ypo ints</w>
Iso tope</w>
Gu ide</w>
Ac l</w>
min s</w>
v g</w>
sh e
C RO
Ob js</w>
acl ava</w>
REAL M</w>
P BE</w>
M ORE</w>
pres ence</w>
Ra tes</w>
H u
z ones</w>
Inte gr
C MX</w>
with out</w>
ali ser</w>
decomp ressor</w>
centr oid</w>
an cestors</w>
Oc cur</w>
Inf antry</w>
struc tured</w>
recur se</w>
EN CES</w>
sen sitive</w>
r ating</w>
j b
er ce</w>
st m</w>
SWIT CH</w>
al arm</w>
Blan ket</w>
PRIMI TIVE</w>
ST IN
Le ss
bl ack
up loader</w>
Oc cu
In ventory</w>
tr on</w>
str a</w>
lo tting</w>
co v</w>
bil ities</w>
Recogn ized</w>
inter action</w>
gener al</w>
PER SI
N atural</w>
E lt</w>
Lock ss</w>
caps ul
b out</w>
s lave</w>
Pre pare</w>
my class</w>
agg ing</w>
Scal ed</w>
over lay</w>
M d</w>
sscan w</w>
j peg</w>
gen bank</w>
S ten
B V</w>
j id</w>
jj tc</w>
bit map</w>
Ter rains</w>
p ting</w>
Es cher</w>
sub type</w>
neighb or</w>
V name</w>
R gb</w>
n cy</w>
Re pair</w>
Mark ov</w>
CONN ECT</w>
CAL L
I r
COMPAR ISON</w>
requi res</w>
ep r</w>
Mi xin</w>
un used</w>
em bedded</w>
PAR TI
C AST</w>
cla use</w>
XS I</w>
Pre mium</w>
ag er
gr p</w>
dres sing</w>
d ns</w>
Execu ted</w>
THRESHO LD</w>
P l</w>
AL Y
vari ate</w>
g y</w>
deli m</w>
am er</w>
Sub s</w>
Sw it
Recon ne
JO IN</w>
C o</w>
de vices</w>
X MP</w>
B LOB</w>
client gui</w>
me ss
d able</w>
Ob served</w>
pri vacy</w>
PROX IES</w>
Do ji</w>
uff le</w>
DEFIN I
N ATIVE</w>
ch i
bu ckets</w>
AN ALY
li p</w>
f rag</w>
D ro
an tile</w>
Pri m</w>
n orth</w>
Amb iguous</w>
ro r
lyp hs</w>
Medi ator</w>
jj bit</w>
Parenthe sized</w>
P ress</w>
L ER
Gra d</w>
TA B
BE AN
in gle</w>
d norm</w>
INCRE MENTAL</w>
dar k</w>
ST ACK</w>
che ese</w>
P s</w>
E AR
Bo th</w>
di ze</w>
SERI ALIZ
New line</w>
d den</w>
c bi</w>
Pre process</w>
respon ses</w>
Po pped</w>
v k</w>
X t</w>
Re paint</w>
no ise</w>
SE P</w>
QUALI FIED</w>
W D</w>
ti ssa</w>
Re transmission</w>
J ournal</w>
Co variance</w>
en te</w>
t orial</w>
Intro du
d ls</w>
RAN DOM</w>
Cal ling</w>
Prin ting</w>
AN K</w>
roo t
ffici al</w>
i ble</w>
cip als</w>
Configur ator</w>
SO LU
comp act</w>
mp er</w>
lev ation</w>
X A
ma y</w>
MULTI PLE</w>
pic ks</w>
Advan cement</w>
ic m</w>
Occurren ce</w>
fi r
S asl</w>
l u</w>
De viation</w>
Re ading</w>
FFFF FFFF
Wri teable</w>
temp lates</w>
GENER AL</w>
t ner</w>
sn mp</w>
Sub graph</w>
N il</w>
H ttps</w>
FIEL DS</w>
ag e
comp liance</w>
D ND</w>
rol l
Th umbnail</w>
di sc</w>
Ran ker</w>
I tal
co urse</w>
Ex cludes</w>
S orting</w>
Bar rier</w>
Ges ture</w>
w ss</w>
vel y</w>
n s
Co m</w>
me m
db ag</w>
W ILD
Char ging</w>
u d</w>
sn apshot</w>
g les</w>
Respon der</w>
comp ress</w>
AL LOW
unc tional</w>
re build</w>
P ACK</w>
wa ter</w>
VISI TED</w>
Bu gs</w>
si vely</w>
in complete</w>
Identi fiable</w>
re placed</w>
le ading</w>
Parti tion
h wnd</w>
class loader</w>
T M</w>
Un pack</w>
L HS</w>
Expir ation</w>
sol ver</w>
pi peline</w>
v f</w>
adap t</w>
Reli able</w>
MO USE
B C
c ou
an no</w>
D l
sp ected</w>
exp an
current diff</w>
TO OL
Re feren
ANG LE</w>
sign ificance</w>
F c</w>
e level</w>
l atch</w>
aaaa aaaa
C ED</w>
un safe</w>
WILD CARD</w>
Auth n</w>
r dr</w>
Attach ed</w>
te l
te ur</w>
re pair</w>
cur ate</w>
Ver b</w>
F av
ti ls</w>
coordin ates</w>
Ital ic</w>
relev ance</w>
Interpol ation</w>
u se
Ca ptor</w>
pri orities</w>
ch ase</w>
que u
per si
I fc</w>
E ast</w>
calcul ated</w>
b attle</w>
a ffected</w>
C G</w>
Tr un
Ra is
R ock</w>
Id ent</w>
Ex cess</w>
c class</w>
HAN DLE</w>
f q</w>
Down loaded</w>
Dat um</w>
C DI</w>
mp p</w>
gro up
at oms</w>
PAR AMS</w>
e u</w>
cogn ito</w>
um s</w>
ex change</w>
e hs</w>
R ply</w>
SOLU TION</w>
FIN ER</w>
E id</w>
Tax on</w>
ES S</w>
Termin ate</w>
co d</w>
Multip lic
OR IG
h map</w>
caten ate</w>
Scan line</w>
BI G</w>
li day</w>
gri dbag</w>
D D
di o</w>
de fs</w>
DE CL</w>
E M
sh ortcut</w>
d uplicates</w>
pro pagation</w>
Esc aped</w>
fil ler</w>
a round</w>
instanti ation</w>
c pg</w>
di vider</w>
LOW ER</w>
jd om</w>
Re member</w>
Off line</w>
se q
v ou
in tro</w>
imp lies</w>
c ts</w>
ER R
sav epoint</w>
full name</w>
GLOB AL</w>
B ang</w>
activ ated</w>
l ys</w>
dete ctor</w>
a us</w>
AR CH
B aclava</w>
sp acing</w>
c pu</w>
ti le
th ree</w>
Sli ces</w>
J ndi</w>
sp ended</w>
Stere o</w>
SEVER ITY</w>
NET WORK</w>
F un</w>
s ay</w>
Provi ded</w>
Col lator</w>
sm aller</w>
iv q</w>
Comp act</w>
Re visions</w>
IN SN</w>
g onal</w>
c total</w>
Th umb</w>
hyp h
TRA ILING</w>
Xml db</w>
Relo ad</w>
PK I</w>
Ker beros</w>
F A</w>
E pochs</w>
B IT
r u</w>
lu t</w>
M ining</w>
X inco</w>
Le g</w>
Desc endants</w>
Col lation</w>
Con sequent</w>
Sco rer</w>
TA G
INTER EST
GO TO</w>
is q</w>
BUIL DER</w>
F S
N th</w>
do it</w>
debu gger</w>
FI C
r uby</w>
vou rer</w>
g id</w>
S W
AS ING</w>
Del ay
U s</w>
Calcul ated</w>
B en
COMPLE TE</w>
PER S
w atch</w>
v ectors</w>
on imo</w>
NAM E
Ex clusion</w>
trans mit</w>
sp inner</w>
re si
Lo gs</w>
CONTIN UE</w>
Ref resh
dar ker</w>
Pro d</w>
OB J</w>
Mo vie</w>
JAV A
BIN DING</w>
sq r</w>
Rais ing</w>
DECO DA
DECODA BET</w>
re l
ou s
lear n</w>
j ndi</w>
c num</w>
POIN TS</w>
Li sting</w>
J avascript</w>
un satis
os id</w>
G D</w>
c dr</w>
Sh ot</w>
Referr al</w>
H ASH</w>
DI MEN
Re dundant</w>
L U</w>
COM BO</w>
ul er</w>
incre ase</w>
cumul ator</w>
c vs</w>
c king</w>
B LOC
o me</w>
T N</w>
REGISTR Y</w>
j class</w>
ren dering</w>
SR C</w>
Comb ined</w>
lon g
bu siness</w>
CHILD RE
TRUST STORE</w>
H ours</w>
DEP END
clu sions</w>
Expand able</w>
x q</w>
FLA GS</w>
i con
WR T</w>
M ag
w type</w>
te sters</w>
d bc</w>
as ure</w>
P ie</w>
INVO CATION</w>
to metric</w>
An ti
m ounted</w>
Tri ggers</w>
SAM PLE</w>
INTEREST ING</w>
te d
F lu
x a
m aps</w>
ce pts</w>
AT TEN
hand shake</w>
al ed</w>
Requi rement</w>
sp h
cap it
c up
N at</w>
Evol ved</w>
Equi valent</w>
CHILDRE N</w>
pro ducts</w>
pro be</w>
HI DE</w>
go ti
deri v
D SL</w>
Be en</w>
reh ouse</w>
NOTI FY</w>
COM P</w>
tho gonal</w>
Exemp lars</w>
Calcul ate</w>
AC T
l on</w>
SU PER</w>
O CL</w>
Proto cols</w>
sec tions</w>
y i</w>
pp ing</w>
comb ined</w>
pri ate</w>
de activate</w>
ACCE PT</w>
A reg</w>
tr i</w>
CI R
Ro tate</w>
AL ITY</w>
im als</w>
Hyp er</w>
ser ve</w>
il ds</w>
h is
ame ter</w>
UN DER
En act</w>
supp lier</w>
Medi um</w>
comp ac
ME M
Pro gram
owner ships</w>
bl dg</w>
NO TE</w>
MILLI SECOND</w>
al lows</w>
SERVI CES</w>
max val</w>
assem bly</w>
V TD</w>
P added</w>
v o</w>
Reconne ct</w>
x ffff</w>
O S
LIC IT</w>
h tt
W IN</w>
C l</w>
ALLOW ED</w>
se ded</w>
doc umentation</w>
REG IST
E lec
reach able</w>
cal lee</w>
IN AL</w>
la in</w>
ce s
ste re
FOC USED</w>
I B</w>
DO T
li ste</w>
O VER</w>
posi tional</w>
eigen values</w>
Rela tionships</w>
Boo t</w>
sc enario</w>
p du</w>
L engths</w>
Un classified</w>
E MF</w>
A spec
wi dest</w>
mis es</w>
boun ded</w>
Stere otype</w>
Resi duals</w>
R ON
th rift</w>
esc aped</w>
Imp urity</w>
time zone</w>
b ri
E w</w>
i j</w>
attemp t</w>
m sw
KEY CODE</w>
Der by</w>
un pack</w>
t ok
hol ders</w>
Dl link</w>
cop ied</w>
cor ner</w>
n ame
enac tment</w>
NE G</w>
is sion</w>
C MP</w>
xml sig</w>
l x</w>
fe time</w>
ta rea</w>
st omize</w>
dis connection</w>
Sub sample</w>
t ns</w>
au gs</w>
Requi res</w>
d base</w>
De partment</w>
sti ma
m rl</w>
compac tify</w>
R ounds</w>
F L
S AL</w>
d ash</w>
goo gle
bati s</w>
N M
M aths</w>
lear ning</w>
ari ze</w>
i batis</w>
Z s</w>
CHARAC TER</w>
li sh</w>
s u</w>
Un lock</w>
APPLIC ABLE</w>
clu ding</w>
b de</w>
s mo</w>
et oo
etoo th</w>
Inde xer</w>
Sugg estion</w>
IN LINE</w>
PRE VIEW</w>
S miles</w>
ob jec
SPAC ING</w>
I CON
RE CT</w>
Co ded</w>
C K</w>
dm tn</w>
ANNO T
cop y
L java</w>
um l</w>
g cd</w>
PR UN
c f
PAREN THE
DIRE CT</w>
ex clusion</w>
UN K</w>
MIN IMUM</w>
Conne ctors</w>
Bit stream</w>
scal ar</w>
U n</w>
Ex treme</w>
google code</w>
pla ces</w>
U D</w>
Sto res</w>
SR CP</w>
Un pruned</w>
So mething</w>
RE SOLUTION</w>
x si</w>
mu tation</w>
fi n</w>
de ps</w>
Ra tional</w>
B idi</w>
su perior</w>
p ure</w>
ur is</w>
m un
authenti cator</w>
REPL ACE</w>
e ty</w>
b righ
l ng</w>
m ut
assem bler</w>
D Y
se vere</w>
P HO
ob jective</w>
mo del
Schedul ing</w>
PROTE CTED</w>
FOL LOW
Back ward</w>
lo ss</w>
i ff</w>
expec ting</w>
Parti tions</w>
li b
men ager
menager ie</w>
FAC ET</w>
B ene
Ag g</w>
bal an
Pro ducts</w>
SOUR CES</w>
p mml</w>
o si</w>
X path</w>
PARAME TERS</w>
t w</w>
sa w</w>
intersec ts</w>
XA ER</w>
Isol ation</w>
t curve</w>
W M</w>
w inner</w>
gg ee</w>
D ash</w>
stima tes</w>
F i</w>
n k</w>
cred ential</w>
so lete</w>
b in
io x</w>
Ser vers</w>
enumer ator</w>
H S
t olerance</w>
lo an</w>
de ref</w>
Up loader</w>
un load</w>
d fa</w>
FORM ED</w>
Appro priate</w>
Un safe</w>
S vc</w>
Col lapse</w>
m ouse
Cluste ring</w>
no tate</w>
Ver tices</w>
SETT INGS</w>
Mis matched</w>
ED GE</w>
m h</w>
Jd wp</w>
Col lapsed</w>
CONSTRA INT</w>
H AS</w>
under lying</w>
So ftware</w>
pp sq</w>
b ab</w>
Sur ro
In f</w>
FF L</w>
DU M
Sm allest</w>
AR ROW</w>
TIM ER</w>
Attemp ts</w>
Aggreg ated</w>
ti f</w>
ge ometry</w>
LO OP</w>
J et</w>
Delay ed</w>
A ID</w>
Stati cs</w>
Con ven
At ten
AR E</w>
or test</w>
Inter net</w>
sta bl
R M</w>
P asswords</w>
disp layed</w>
ac curate</w>
SI Z
Do ts</w>
Ac tor</w>
end ly</w>
Per mitted</w>
co erce</w>
al bum</w>
begin pos</w>
CUR LY</w>
Attemp t</w>
quanti ty</w>
bloc ker</w>
Loc ks</w>
ili ation</w>
ID S</w>
B M</w>
w alker</w>
AN CH
Mal functions</w>
Emb ed</w>
de serialized</w>
TH RO
DUM MY</w>
c data</w>
Cl ones</w>
Be zier</w>
gr and</w>
el e</w>
Z ONE</w>
UL Y</w>
AT T
res ul
Constr uc
imp or
Sk ipped</w>
P en
le tter</w>
B an
transi ent</w>
rw v</w>
Av g</w>
WHITE SPACE</w>
Delim ited</w>
C AS
ac cumulate</w>
AS SER
con ns</w>
Tr acks</w>
Sh ip
ffffff ff</w>
ang obj</w>
T our</w>
time zones</w>
repe ated</w>
b ytecode</w>
upda teable</w>
big gest</w>
TI LS</w>
PR IN
OPTI ONAL</w>
K EN
si der</w>
LIN T</w>
H ALF</w>
mer ges</w>
lu tils</w>
in put
Retri eved</w>
dd lutils</w>
X or</w>
Pro j</w>
l se</w>
i ss
Orig in
Ab spath</w>
gu ide</w>
VISI BILITY</w>
D fp</w>
T abl
con texts</w>
atta ck</w>
k h</w>
bl io
Link lf</w>
r u
ac cess
Comm andline</w>
Stra tegies</w>
Instan t</w>
VALID ATION</w>
R dn</w>
Injec ted</w>
Li bs</w>
prox ies</w>
Separ ate</w>
S ID</w>
Recur sion</w>
In compatible</w>
IF Y</w>
Bene fit</w>
to tal
con version</w>
In c</w>
pres sed</w>
th umbnail</w>
po ssi
che type</w>
pro files</w>
on us</w>
BE GIN
S ax</w>
qu it</w>
ge om</w>
Tempor al</w>
Se e</w>
Respon ses</w>
D HT</w>
X NI</w>
gg ed</w>
N A
Identi fying</w>
D lg</w>
Adap tor</w>
for ma
b g
B k</w>
J EC
Pa y</w>
B MP</w>
No tifications</w>
G ING</w>
J ce</w>
ATTEN DING</w>
t ters</w>
Lear ning</w>
Sign up</w>
Boun ded</w>
re member</w>
ill a</w>
gr adient</w>
Cor ner</w>
log istic</w>
implemen ted</w>
bo wl</w>
Or d</w>
Constra ined</w>
weigh ting</w>
siz eof</w>
He at</w>
do g</w>
Defin e</w>
il over</w>
cr set</w>
re positories</w>
pro pagate</w>
SMAL LINT</w>
li sts</w>
CER TI
AN IM
ic tx</w>
SM O</w>
De gree</w>
A round</w>
j ms</w>
e ast</w>
SL ASH</w>
In ference</w>
DL TK</w>
x fb
bl end</w>
sr cblk</w>
s orter</w>
gre es</w>
ar row
Or thogonal</w>
IC C</w>
p list</w>
g dk</w>
Connec tivity</w>
Redu ce</w>
OR IES</w>
L arg
i ser</w>
Recon c
MODE L
De termin
x o</w>
visu alizer</w>
A STORE</w>
el l
po a</w>
as ons</w>
Bul k</w>
Synchron iz
N orth</w>
G GE
Wri teln</w>
MA IL</w>
navig ator</w>
Hel pers</w>
Display able</w>
Di mi</w>
A m</w>
p ic</w>
clo ck</w>
bo b</w>
C AT</w>
ass ume</w>
x val</w>
k w</w>
a rer</w>
H g</w>
si mil
em q</w>
retur n
d be</w>
Me ta
MEM ORY</w>
D ash
Bro adcast</w>
spli ts</w>
p sum</w>
In i</w>
LU T</w>
J ars</w>
Inter ce
G oo
atta cker</w>
parti cipant</w>
Subs ampling</w>
Mod ality</w>
EN GIN
si blings</w>
oc s</w>
wor ked</w>
qu er
Un limited</w>
G SS</w>
d da</w>
Relev ance</w>
di p</w>
Recor ded</w>
col lections</w>
Per m</w>
li ke</w>
fil er</w>
Tar ge
RE T</w>
equi pment</w>
H dr</w>
D es</w>
My sql</w>
Desc s</w>
w task</w>
Adjac ency</w>
T ag
re ach</w>
in ters</w>
suc ceeded</w>
K W</w>
J unction</w>
san iti
al ph
R c</w>
d out</w>
PER MISSION</w>
w gb</w>
a tives</w>
R ad</w>
E ffects</w>
medi an</w>
las h
DEFINI TION</w>
A ff
A X</w>
Ca sc
rup tible</w>
f allback</w>
PO L
LIN ES</w>
Di vi
w ild</w>
cre en
CO LS</w>
C s</w>
AN CE
pay roll</w>
le ts</w>
fin er</w>
rang ement</w>
MO V</w>
CH UNK</w>
t gs</w>
d trip</w>
un supervised</w>
fa ilures</w>
He ading</w>
DELE TED</w>
po ch</w>
de mo</w>
sph rase</w>
blio graphic</w>
P B</w>
Tr acing</w>
s amp
GRA M</w>
tex tarea</w>
P RE</w>
NUM ER
H H</w>
ipad x</w>
Reco vered</w>
si zes</w>
publ ication</w>
Car rier</w>
Ord inal</w>
N M</w>
Dep loy</w>
Back ing</w>
u ity</w>
menu item</w>
app lic
A ero</w>
file size</w>
R MI</w>
R I</w>
QUE UE</w>
Blu etooth</w>
no tifications</w>
b q</w>
NO W
Fig ures</w>
e h</w>
v endor</w>
ro tation</w>
C O</w>
un der</w>
p an</w>
Sum mar
C ENT</w>
or ite</w>
l engths</w>
bl ock
SE G</w>
Pro visi
en cryption</w>
TI LE</w>
Rand omize</w>
In sensitive</w>
XP COM</w>
TO KEN
conver tor</w>
View ers</w>
ti c
lar gest</w>
DAT AL
s de</w>
Sp ell</w>
Design ated</w>
s df</w>
Per man
cre di
ci on</w>
NE VER</w>
p en
i fd</w>
Fac torial</w>
mar cation</w>
V oice</w>
t our</w>
TRAN SP
T or
Comp liance</w>
up dates</w>
tu be</w>
pan ic</w>
n anos</w>
ff er
con siste
TI ONAL</w>
ST ED</w>
u hn</w>
m bean</w>
bean inst</w>
I ter
b data</w>
U m</w>
GENER ATE</w>
De ep</w>
Asc ending</w>
m itter</w>
F AM
DIRE CTION</w>
en queue</w>
STAR TED</w>
v cl</w>
i ja</w>
MODI FIED</w>
Char sets</w>
S on</w>
Colo urs</w>
V S</w>
EX ACT</w>
S coped</w>
vo tes</w>
log out</w>
IN D</w>
RE P</w>
EN TIC
Deleg ation</w>
D umb</w>
Rel ay</w>
Auto m
he at</w>
Wh o</w>
RA W</w>
Acce ptable</w>
D ST</w>
ATI ON
ANCH OR</w>
tree visualizer</w>
out put
o g</w>
d dy</w>
Con v</w>
AG ENT</w>
Pack aging</w>
MI TED</w>
DIAG RAM</w>
AUTH ENTIC
CAN NOT</w>
Ste p
PD U</w>
H DFS</w>
G ad
ALPH A
lab el
Publ ication</w>
G R</w>
DAT AS
Co ding</w>
e ur</w>
av atar</w>
Rend er
re play</w>
nam ent</w>
bo xes</w>
Un i</w>
Recur ring</w>
No thing</w>
oc curren
tr e</w>
Th ird</w>
Te st
S RP</w>
Play ers</w>
N i
atch ed</w>
stitu tion</w>
nul lable</w>
i tored</w>
PP ER</w>
Over lap</w>
ID X</w>
DE C</w>
AC CES
ST OP
LO ADER</w>
TO OL</w>
Local es</w>
Correc tness</w>
ign orable</w>
Pre ds</w>
x m
En g</w>
m ing</w>
T ache</w>
TOP IC
ro ster</w>
CHO ICE</w>
C LE
ref ac
Open ing</w>
cw a</w>
QUO TE</w>
am ing</w>
Fin ally</w>
Doc type</w>
r sa</w>
our nament</w>
ex amples</w>
end pos</w>
doc type</w>
b old</w>
b all</w>
Larg est</w>
s map</w>
recon c
SPECI FIED</w>
Expi re</w>
su cc</w>
ph ysical</w>
Col oring</w>
Ex cel</w>
s onal</w>
SELEC TABLE</w>
I con
t prob</w>
D u
imp ro
V EN</w>
CONNEC TED</w>
Black board</w>
sh ard</w>
scri be</w>
dec rement</w>
b idden</w>
atter y</w>
S oot</w>
H app
q st</w>
l sid</w>
V FS</w>
POSI T
H l</w>
Dep loy
Contin uation</w>
gener ics</w>
BI O
end ers</w>
L scp</w>
Dep end</w>
ste ms</w>
S U</w>
Delim iters</w>
Un checked</w>
ti ff</w>
mi xing</w>
RE POSIT
re x</w>
S el
MI ZE</w>
Ass ay</w>
he ad
Vari ants</w>
Sh ip</w>
Ab c</w>
b race</w>
Stri ke</w>
Produ ces</w>
I CONST</w>
Gad gets</w>
W atcher</w>
Bi ene</w>
bo xed</w>
T CH</w>
ma tic</w>
S LP</w>
VIE W
dis cover</w>
appro val</w>
stra tegies</w>
Condi tioned</w>
is r</w>
in s
B yte
Automa tically</w>
ra c</w>
r stats</w>
Wor th</w>
Manipu lator</w>
y c</w>
log inform</w>
as sist</w>
Fac ility</w>
BAN G</w>
Pre processor</w>
te am</w>
pre condition</w>
lex ical</w>
cache kh</w>
U PPER</w>
retur ns</w>
Revo ked</w>
Consum ing</w>
ac le</w>
Anim ator</w>
ce p</w>
Surro gate</w>
P oller</w>
stre et</w>
Mu tex</w>
Me mo</w>
disp osable</w>
P du</w>
e ffect</w>
Comp any</w>
B ra
Al phas</w>
Y Z</w>
squ ared</w>
U se
Dete ction</w>
Li st
ra s</w>
jb ca</w>
for um</w>
per ms</w>
Sh rinkage</w>
sp ri
mi ss
RE SIZE</w>
G ATE</w>
oth er
b ile</w>
ack ets</w>
X ist</w>
Predi ctive</w>
As m</w>
Mo ds</w>
sql map</w>
in her
f out</w>
IN STRU
Cur sors</w>
I DOM</w>
COMPAR E</w>
m at
Synchron izer</w>
htt p
Lin kage</w>
Ac ti
z illa</w>
var b</w>
tr acks</w>
W PF</w>
Flo ating</w>
sta l</w>
step node</w>
re sized</w>
ar range</w>
JD WP</w>
GR ID</w>
B c</w>
nd x</w>
Se m
inter pre
di n</w>
c ked</w>
Sup ports</w>
B i</w>
plu g</w>
POR TS</w>
Di ms</w>
i width</w>
K lass</w>
id le</w>
T ournament</w>
J itter</w>
UN SUPPORTED</w>
Rel ations</w>
Navig able</w>
GROUP ER</w>
un covered</w>
SSI BLE</w>
Op timistic</w>
Fi red</w>
meas u
CLO UD</w>
J BC</w>
D l</w>
d so</w>
aggreg ated</w>
Simil arity</w>
s bi</w>
pix buf</w>
par a</w>
in sertion</w>
ca iro</w>
P SK</w>
LEA F</w>
r c
fol ders</w>
COMPRES SION</w>
ANTIALI AS</w>
q ry</w>
MP I</w>
SI L
PR INT</w>
Appro ximate</w>
RE G</w>
H and</w>
S LI
C I</w>
df lt</w>
cv f</w>
c able</w>
TH READ
TE T</w>
R tf</w>
ER ED</w>
st ale</w>
d sa</w>
X X</w>
HIG H</w>
DY NAM
Brea ks</w>
bit stream</w>
at an</w>
d ings</w>
O WN
Mo ves</w>
c dl</w>
pre pend</w>
G host</w>
Stu bs</w>
Inte rest</w>
Copy right</w>
dat a
T ar</w>
O C</w>
ERR ORS</w>
De signer</w>
re v
dat as</w>
al ig
U ML</w>
On line</w>
FFFF FFF</w>
EQU IP
te time</w>
t uples</w>
o u</w>
jj round</w>
ad j</w>
P Y
EQUIP MENT</w>
sty led</w>
Sh ort
GR AP
Deriv ative</w>
ACCUR ACY</w>
c ators</w>
G VT</w>
Ti ps</w>
Q R</w>
sv m</w>
sou th</w>
Lo b</w>
Bi bliographic</w>
sa kai</w>
invo king</w>
Sem aphore</w>
i os</w>
Parti cip
liste n</w>
graph s</w>
T err</w>
REPOSIT ORY</w>
R G
sh are</w>
cou gaar</w>
ac match</w>
u sages</w>
tar g</w>
cle n</w>
S z</w>
x z</w>
un smoothed</w>
re order</w>
Instanti ate</w>
AD V
rang elist</w>
UL D</w>
Top most</w>
Mo lecule</w>
Mo jo</w>
Pri mitives</w>
Ph i</w>
Ir relevant</w>
ti m</w>
r w</w>
as sertions</w>
thro u
S R</w>
P FD</w>
mi colon</w>
interpol ate</w>
Identi er</w>
DI S
m utable</w>
GGE P</w>
o sw</w>
SE LF</w>
si p
fi xture</w>
V ary</w>
Ar m</w>
tan gles</w>
UPDAT ED</w>
Per c
m q</w>
SUBSCRI BE</w>
D ark</w>
ne eded</w>
equi valent</w>
C RI
mi xed</w>
kai ke</w>
g lobals</w>
F K</w>
MO BY
M ATIC</w>
Leg al</w>
Comp ressor</w>
temp list</w>
sta mps</w>
b id</w>
as n</w>
an ony</w>
Jax en</w>
ANNOT ATIONS</w>
Augmen tations</w>
break points</w>
LO OK
J cs</w>
sp o
datab ases</w>
Mat lab</w>
sh es</w>
Look back</w>
Hu ge</w>
dec ls</w>
0000 0001</w>
b ands</w>
w k</w>
p c
ste ri
Re al
n tob</w>
Wri ters</w>
M TYPE</w>
ANALY Z
substitu tion</w>
ifi cant</w>
EXCLU DE</w>
Black list</w>
mag ni
P LS</w>
in its</w>
Se ek</w>
Mi xture</w>
H Y
y a
S UR
fr u
ac cu</w>
Authenti cated</w>
exec u
rea ded</w>
Render able</w>
SPE ED</w>
p oo
LI B</w>
Cri terion</w>
process es</w>
Li mits</w>
Inter cept</w>
AC ITY</w>
VI CE</w>
Pro ce
A B</w>
contain ers</w>
KE EP</w>
Cor r</w>
u x</w>
b angobj</w>
P ath
IN SIDE</w>
th est</w>
reg ressions</w>
con di
INSTAN CES</w>
sugg est</w>
multip lied</w>
b rea
Voc ab</w>
suc cess
parame terized</w>
CHAR SET</w>
n lp</w>
fil led</w>
M R</w>
r fd</w>
comp o
D bl</w>
k on
flat ten</w>
Hy dro
Ta i</w>
PROCEED ING</w>
PRE D</w>
il ls</w>
as ked</w>
pre c
boo tstrap</w>
ffff ff</w>
star table</w>
SEAR CH
x p
comm ission</w>
VI SION</w>
mon it
gener ation</w>
En abl
to c</w>
Par allelize</w>
L AT
S ms</w>
P L</w>
ff el</w>
ei ffel</w>
CO OR
U SA
Re asons</w>
E NUMER
vi con</w>
rec or
declar ations</w>
Re play</w>
Clo seable</w>
BU I</w>
mo tn</w>
s mi</w>
dh al</w>
be f</w>
Sten dhal</w>
L M</w>
PARENTHE SES</w>
ori ent</w>
ENGIN E</w>
As serted</w>
w ss
Fe deration</w>
FACT OR</w>
Edi ted</w>
CIR CLE</w>
ver sioned</w>
vari ants</w>
sig num</w>
pa used</w>
n pe</w>
local worker</w>
extr acted</w>
LIST ING</w>
edi ted</w>
con str</w>
Roun dtrip</w>
RE CE
R ob
ver able</w>
down loader</w>
PI X
POIN TER</w>
Dy na</w>
for ked</w>
col li
fe tched</w>
SYN C</w>
r n</w>
ish ing</w>
rec ycle</w>
max k</w>
Acti vate</w>
ob jc</w>
Ad ditive</w>
O lap</w>
Expir y</w>
ON MOUSE
N V</w>
te way</w>
es nt</w>
cli mb</w>
c d
bas edir</w>
back ing</w>
In spector</w>
C mb</w>
up grade</w>
t on
Pro ceed</w>
Por table</w>
J sx</w>
DEBU G
highligh ter</w>
be g</w>
W BS</w>
Pk t</w>
xy z</w>
pre tty</w>
LA R</w>
par agraph</w>
J BUI</w>
HE X</w>
H alf</w>
AR GB</w>
e type</w>
che stra</w>
V ect</w>
sp ans</w>
l p
Li ste</w>
regi str
re transmission</w>
Pro jet</w>
Inter n</w>
Agg r</w>
in p</w>
in et</w>
ch isq</w>
S CORE</w>
Centr oid</w>
Alph abet</w>
tl m</w>
un bind</w>
HS LF</w>
retri eved</w>
an ted</w>
In visible</w>
Custom ized</w>
li n</w>
bio java</w>
Sm aller</w>
SPECI AL</w>
D URATION</w>
i om</w>
CER T</w>
y es</w>
Up dating</w>
r id</w>
min der</w>
de e</w>
RE PE
J RE</w>
F lat
E V</w>
del ta
I rr</w>
le ctors</w>
ANTIALI ASING</w>
Fil led</w>
it m</w>
del tas</w>
c tf</w>
Rol lover</w>
IZ ED</w>
IT TED</w>
E TYPE</w>
X M
In den
HIG H
i index</w>
v name</w>
le ast</w>
W ild</w>
ADD R</w>
NOW LE
UN ITS</w>
Ad ding</w>
re lay</w>
EXIST S</w>
Bro ken</w>
it time</w>
SYMBO L</w>
S MO
Revo cation</w>
HE LP</w>
Cli ques</w>
p out</w>
sp ring</w>
liter als</w>
dr agged</w>
Val ve</w>
Ro se</w>
EXP I
DYNAM IC</w>
C uration</w>
sh back</w>
n io</w>
den sity</w>
analy se</w>
P en</w>
Tra it</w>
col or
Unsatis fiable</w>
R ow
b dd</w>
ST OR</w>
Pa used</w>
AR C</w>
refac toring</w>
For ced</w>
im mediate</w>
h l</w>
ar t
MO D
F unctional</w>
Po tential</w>
ANIM ATION</w>
A VERAGE</w>
00000000 00000000
q t</w>
id gets</w>
Pr x</w>
Bloc ked</w>
l ators</w>
H A
x nf</w>
MER GE</w>
E EE</w>
lo on</w>
Pla ces</w>
Min imize</w>
ME AS
I FI
fi es</w>
y val</w>
tempor ary</w>
r total</w>
play ers</w>
g ers</w>
form als</w>
Work s</w>
Wh at</w>
TR AL</w>
Optim ized</w>
Ch o
mo mentum</w>
ces try</w>
SER V
m nemonic</w>
capsul ated</w>
Wri ting</w>
Sh ard</w>
Dec imals</w>
Ann oun
o a</w>
gi tude</w>
NORM ALIZE</w>
AS SIGN
vec x</w>
tho d
t gt</w>
h il
X core</w>
R ING
co variance</w>
b agger</w>
pu s</w>
G ram</w>
DE SELECTED</w>
ret ch</w>
R qst</w>
O LD</w>
p ments</w>
Viol ation</w>
Ob solete</w>
Categ orized</w>
A GB</w>
decor ator</w>
ta gged</w>
UN SET</w>
AUT HORIZ
fr m</w>
Sh oe</w>
RECE I
ca ption</w>
Enhan ced</w>
Credi ts</w>
w ers</w>
T ank</w>
mo des</w>
VER SAL</w>
Re versal</w>
O cr
HE AD
Ac counts</w>
th r</w>
k id</w>
fil enames</w>
capit alize</w>
E levation</w>
i cons</w>
Nul ls</w>
MAT CH
I OR</w>
sco rer</w>
sam p</w>
b k</w>
O op</w>
ss h</w>
per t</w>
rep res
Lay ered</w>
Inf later</w>
wh o</w>
st atuses</w>
di ag</w>
Stop words</w>
S t</w>
Le ader</w>
Boun daries</w>
Out side</w>
MAR T</w>
An cestors</w>
ya ffs</w>
t st</w>
instr ument</w>
cl i</w>
cir cle</w>
Synchron ization</w>
Resol vable</w>
Deleg ating</w>
p ps</w>
coe f</w>
x ts</w>
war nings</w>
RE FS</w>
F lex
mo tion</w>
ind map</w>
e es</w>
da emon</w>
Read only</w>
x ab</w>
un read</w>
tri mmed</w>
sub sum
err ms</w>
navig ate</w>
JO B</w>
I ME</w>
Ass um
cli ques</w>
x l</w>
restri ction</w>
alis ed</w>
ag onal</w>
Sin gular</w>
Ran ked</w>
G db</w>
DI AN</w>
B id</w>
SH IP</w>
Pre m</w>
Classi fy</w>
po licies</w>
ce x</w>
FE EL</w>
yp ass</w>
code base</w>
av y</w>
m on</w>
TE MP</w>
Extr u
ne c</w>
READ ONLY</w>
Q t</w>
B aton</w>
ver b</w>
H IDDEN</w>
Dur able</w>
Bin arize</w>
up stream</w>
sa kai
ou tube</w>
S oci
Form ed</w>
ON Y
Ge om</w>
Di sts</w>
BO OL</w>
sr f</w>
iz ations</w>
d tm</w>
bu ffers</w>
DO M
D sl</w>
row ed</w>
V fs</w>
aggreg ation</w>
TO C</w>
re tained</w>
Uni x</w>
Re defined</w>
ten v</w>
pho tometric</w>
ite m
in tf</w>
Loc king</w>
IN T
Scrol ling</w>
provisi oning</w>
Fa ils</w>
io ex</w>
ar mor</w>
Open er</w>
FOLLOW SPLIT</w>
he alth</w>
car ry</w>
OC SP</w>
DATAL INK</w>
C ue</w>
RE SOURCES</w>
le cular</w>
at ment</w>
S log</w>
ACK NOWLE
N V
Fe at</w>
I SS
Dete ct</w>
d ms</w>
bl ur</w>
INTER PRE
manag ement</w>
associ ations</w>
Man ual</w>
y r</w>
nemon ics</w>
cu stomize</w>
ON G</w>
LOG TAG</w>
DB I</w>
CON TEN
Class file</w>
Ari ty</w>
syn thetic</w>
Pro mise</w>
COLU M
Uni variate</w>
P EM</w>
p en</w>
inter active</w>
de cessor</w>
ag ents</w>
a j</w>
Auth orize</w>
equ ip</w>
Loc ally</w>
Ex s</w>
overri des</w>
R AND</w>
Quali fiers</w>
EN CRYPT</w>
fre e
Posi tion
F ull
st rength</w>
he ading</w>
so ftware</w>
ony m</w>
Retur ning</w>
s fs</w>
RUN TIME</w>
D SS</w>
e ces</w>
Vi p</w>
Ele ms</w>
ne sting</w>
S QU
Constr ucted</w>
Ali g
Pre cedence</w>
P tg</w>
LU TILS</w>
tran sparent</w>
Qu it</w>
DER BY</w>
DD LUTILS</w>
debu gging</w>
can not</w>
art be
MON IT
st mts</w>
Comp ress</w>
sakai project</w>
as tore</w>
Pro por
D to</w>
milli second</w>
bor rowed</w>
RESTRIC TION</w>
BEGIN NING</w>
SUB JECT</w>
NO T
Ma y</w>
ne ver</w>
a inst</w>
Re ject</w>
sta ck
f resh</w>
Y es</w>
Jet ty</w>
CONN ECTOR</w>
r ases</w>
lar ger</w>
PP C</w>
Optim ization</w>
Ar rangement</w>
se lec
bas e
Sc r
REL ATION</w>
OP S</w>
DATE TIME</w>
k t</w>
activ emq</w>
Sw app
FAI L</w>
SS H</w>
Colli sion</w>
Coe fficient</w>
s ched</w>
Y outube</w>
Comp li
fri end</w>
dis k</w>
re marks</w>
po intcut</w>
pa ne
STOP P
Pro filer</w>
post fix</w>
provi ded</w>
aspec tj</w>
Experi ments</w>
S OR
PRO GRAM</w>
Oc tets</w>
Inter p</w>
A I</w>
sym metric</w>
classi fications</w>
n index</w>
hash tables</w>
d if</w>
SC AL
Program mer</w>
un supported</w>
m se</w>
expan sion</w>
J api</w>
GO ST</w>
ous ly</w>
Disp oser</w>
J J
DIMEN SION</w>
LOC AL
x t
be ep</w>
av el
G TK</w>
C c</w>
stin ations</w>
d ash
R class</w>
Pre multiplied</w>
D UP
0000 0</w>
h unit</w>
auth ors</w>
Rec i
Inter rupt</w>
Ca no
Auth z</w>
wr ong</w>
Sn ippet</w>
S we
Me eting</w>
acce ptor</w>
SIGN IFI
SIGNIFI CAN
IMP L</w>
Evalu ations</w>
our th</w>
a ned</w>
D Q</w>
g if</w>
c pp</w>
B AR
Attribu tions</w>
p cs</w>
p ad
de t
n ick</w>
craw l</w>
F C
TO LER
hi bi
enum ber</w>
U L</w>
DL LINK</w>
ALPHA BET</w>
or gan
cl one
Ti ff</w>
FS FS</w>
AN ONY
cach es</w>
Re view</w>
sk etch</w>
mo by
UL X</w>
LOG GING</w>
Aspec ts</w>
V EN
FUN C</w>
Bi en
Stand alone</w>
P EN
cri tical</w>
USER NAME
J u
BREA K</w>
sp e
down stream</w>
Th ings</w>
Augmen tation</w>
x old</w>
inter ce
di es</w>
d et</w>
sub dir</w>
sli de</w>
DE L</w>
form ances</w>
ea ker</w>
SU M</w>
S er</w>
FIN DER</w>
Wor st</w>
fin d
be tween</w>
db l</w>
I terate</w>
RA DI
Key map</w>
Publ ish</w>
Bi r
Al loc</w>
S p</w>
ARGU MENTS</w>
pu n
java c</w>
id ata</w>
S AS
Fa ilures</w>
X PATH</w>
p stop</w>
av er</w>
S O</w>
IDENTI TY</w>
ALI AS</w>
ti tem</w>
de sign
VER T</w>
cal ling</w>
c nv</w>
CON F</w>
spri te</w>
Sh e
M nemonics</w>
at ypes</w>
roun ds</w>
w exp</w>
is o</w>
R AD
JAVA DOC</w>
B g</w>
im g
F oo
refer red</w>
en di
consum ed</w>
ACKNOWLE DGE</w>
w indows</w>
t ream</w>
i x
INSTRU CTION</w>
M indmap</w>
Fe tcher</w>
ax iom</w>
V tbl</w>
RE SET</w>
J ingle</w>
I AL</w>
y min</w>
an ger</w>
THREAD S</w>
F N</w>
s or
In its</w>
sub s</w>
Recur sively</w>
Pay ment</w>
ord ering</w>
om ass</w>
exec utable</w>
d ds</w>
jd c</w>
Consiste ncy</w>
Sec ondaries</w>
place ments</w>
DE SIGN</w>
B row
tran sparency</w>
inter n
Ag ainst</w>
gu rer</w>
Post ings</w>
Mo f</w>
Inter le
G A
Con formance</w>
te lephone</w>
in st
ig rate</w>
ge o</w>
WS SECURITY</w>
USERNAME TOKEN</w>
Sk el</w>
LOC ALE</w>
Neg ation</w>
Le m</w>
L vl</w>
di alect</w>
Wa iter</w>
Key ed</w>
ARTI ST</w>
j table</w>
ill climb</w>
Or acle</w>
MO US</w>
Lo ss</w>
pk gname</w>
EN DIAN</w>
yy val</w>
oun d
app ender</w>
F allback</w>
Design ation</w>
De marcation</w>
B a
seq no</w>
NOTI FICATION</w>
EXP ORT</w>
Pre set</w>
Viol ated</w>
TOLER ANCE</w>
P late</w>
Envelop ed</w>
cal l
R D</w>
DEFA ULTS</w>
Compar tments</w>
z er
c sm</w>
JA NU
INSTAN TI
High er</w>
CR C</w>
con catenate</w>
F q</w>
ANONY MOUS</w>
ex tern
bloc king</w>
St mts</w>
su fficient</w>
k nn</w>
Valid ated</w>
RO WS</w>
rm ed</w>
rand om
hyph en</w>
c m
Fac ing</w>
S vg</w>
ITER ATIONS</w>
0000 1</w>
mb re</w>
m al
TR ACK</w>
ET TE</w>
ti ent</w>
i ded</w>
fon ts</w>
con tain</w>
si dx</w>
sh and
enco dings</w>
Ci ters</w>
r name</w>
re ps</w>
in ser
el low</w>
e ba</w>
H ol
B read
w i</w>
bo sity</w>
p pt</w>
ed le</w>
al ter</w>
JN DI</w>
Eigen s</w>
vel ocity</w>
s gen</w>
E stimates</w>
De vourer</w>
glet ons</w>
cen ter
su res</w>
a reas</w>
TOKEN S</w>
Id xs</w>
IT UTION</w>
me mo
G N
Wh ite
Download s</w>
Debu gging</w>
un ci
TRI ES</w>
Spa tial</w>
Or ganism</w>
L FS</w>
se e</w>
over flow</w>
Di e</w>
shand ling</w>
ic ator</w>
can celled</w>
b u</w>
Ta ke</w>
T u
PRO C</w>
in ear</w>
clas shandling</w>
SE TS</w>
NE STED</w>
std out</w>
over lap</w>
b es</w>
EXEC UTE</w>
t val</w>
Deco ding</w>
Compli ant</w>
Ca st
re action</w>
Res ample</w>
P DOM</w>
FOR CE</w>
ASSO CI
Str ut</w>
RE VISION</w>
EC M</w>
E F</w>
ul cy</w>
SQ CX</w>
SETT ING</w>
P SP</w>
Marsh alled</w>
c rosstab</w>
T K
PAR SE</w>
orig in
Mo dul
C pool</w>
sco res</w>
q op</w>
it f</w>
Lap top</w>
um an</w>
Un inter
Sign ificant</w>
P c</w>
Mo lecular</w>
Cl an</w>
Ac cumulate</w>
S CEN
Inde terminate</w>
Ad dressing</w>
det render</w>
ad y</w>
TAG CLOUD</w>
RING ING</w>
RES ULTS</w>
Er ror
b an
la f</w>
c ba</w>
EC DSA</w>
E jbca</w>
Tra ver
Rep l
st or
UN SIGNED</w>
COMM ITTED</w>
di g</w>
Y A
VARI ANT</w>
Fi r
ag enda</w>
P ID</w>
b tree</w>
B L</w>
w e</w>
ti e</w>
an im</w>
Var args</w>
PHO TO
Java ee</w>
Experi mental</w>
Con str</w>
UNI ON</w>
une scape</w>
F x</w>
F REE</w>
B ED</w>
PH ASE</w>
L IT
Bi omass</w>
P UR
OPTI MIZE</w>
f cache</w>
Instr um
C AR
ARE A</w>
th i
FIN D</w>
seri alizable</w>
auth orized</w>
Place holders</w>
si gs</w>
mb r</w>
AT H</w>
on en
inf late</w>
declar ator</w>
K s</w>
z o</w>
big inv</w>
Dat ab
str ong</w>
USA GE</w>
IMPLEMEN TATION</w>
m td</w>
li m</w>
le ft
d ue</w>
UPDAT ABLE</w>
Multi caster</w>
LONG VARCHAR</w>
zi el</w>
r val</w>
p aper</w>
invo ke
a ter</w>
Se mantics</w>
C D
f lu
dep end</w>
bas tream</w>
Rep lica</w>
REGIST ER</w>
Access ed</w>
r ack</w>
Zer os</w>
direc tories</w>
N db</w>
coun tx</w>
Exp rent</w>
D EN
a im
ar cs</w>
Perio dic</w>
B G</w>
upda ter</w>
a tely</w>
Regi sters</w>
EN C</w>
star tidx</w>
pri se</w>
Reque te</w>
PRUN ING</w>
Execu ting</w>
cache din
artbe at</w>
Alig ned</w>
o fs</w>
op t
in ode</w>
CLE AR</w>
up dating</w>
check box</w>
P aging</w>
exp orted</w>
Time zone</w>
A ble</w>
H MM</w>
end points</w>
b ert</w>
ac counts</w>
Sh u
Adjust ments</w>
j m</w>
di fferent</w>
M SE</w>
Fac tors</w>
F ly</w>
h yp</w>
ck y</w>
cachedin cluded</w>
ORIG INAL</w>
Le ak</w>
H i</w>
G er
COLO UR</w>
ta bl
sion ality</w>
e vol
min x</w>
ach er</w>
Mo de
E X</w>
CEN TRAL</w>
scrol ler</w>
bu ffer
App le</w>
ST O
BL ANK</w>
m or
x k</w>
deriv ation</w>
Tim ed</w>
Pro per</w>
ASSIGN MENT</w>
q names</w>
f md</w>
erarch ies</w>
wi de</w>
S END</w>
h as
STRI PE</w>
Redu ced</w>
Compo seable</w>
CLO B</w>
ul cx</w>
p node</w>
l sp</w>
PERSI ST
Milli seconds</w>
Da tes</w>
00000000 0000</w>
p ce</w>
PRES SED</w>
y max</w>
j ob
Fro zen</w>
B onus</w>
tic als</w>
i mmutable</w>
SE MAN
Resol ving</w>
EXTEN DED</w>
M andatory</w>
Inst list</w>
sub jects</w>
min y</w>
Assum ption</w>
ver ified</w>
intro du
Cli ents</w>
li kelihood</w>
c ult</w>
b h</w>
D ENCE</w>
l and</w>
k r</w>
HE L
Ar t</w>
pre cedence</w>
DIG IT</w>
C n
Bo t</w>
Assem bler</w>
sign atures</w>
M acros</w>
Ass oc</w>
r ink</w>
open ing</w>
Up on</w>
S ends</w>
Mo ld</w>
MULTI P
E MAIL</w>
C AP</w>
BACK WARD</w>
tr um</w>
clone hlist</w>
Scri pting</w>
uff man</w>
cv rp</w>
ver ti
Un ordered</w>
Cl on
syn th</w>
RO LL
PRO DU
tw op
root pane
rootpane container</w>
ic ast</w>
hi b</w>
D rl</w>
JANU ARY</w>
VER Y</w>
Sy base</w>
SHO ULD</w>
Op posite</w>
Cryp ted</w>
rep lication</w>
f val</w>
Extr action</w>
PERS ON</w>
Advi sor</w>
sh ing</w>
WE B
FE TCH</w>
prob abilities</w>
g mt</w>
alo ad</w>
PHOTO METRIC</w>
Or b</w>
H ASH
r rd</w>
bal ance</w>
Multip ly</w>
IMP O
Flo or</w>
co sts</w>
Oper ands</w>
tel la</w>
scrol lable</w>
an ns</w>
a ex</w>
Poo ka</w>
IN E</w>
E GL</w>
Cor rupted</w>
we ek</w>
m oc
D cc</w>
ve al</w>
Un restricted</w>
U SHORT</w>
FAC T</w>
re bind</w>
c md
ns me</w>
L com</w>
In dependent</w>
DOWN LOAD</w>
std v</w>
pr o</w>
lin ed</w>
T bl</w>
Li fetime</w>
xfb deb</w>
Watch dog</w>
Qu er
C AME
sub mission</w>
an chors</w>
K IND</w>
U TER</w>
pr j</w>
om it</w>
ma ils</w>
Uni versal</w>
e sc</w>
black board</w>
Optim izer</w>
IMPO SSIBLE</w>
PL AC
P ass
Lo comotive</w>
J i
Issu es</w>
B ROW
rs rp</w>
Ne ws</w>
JS R</w>
FF N</w>
Gener alized</w>
f ood</w>
che m</w>
inten ded</w>
deter min
ipad y</w>
SEMAN TIC</w>
Multiplic ity</w>
DRA W</w>
te ste</w>
mut ate</w>
i br</w>
Ac q</w>
SHE ET</w>
trans ferable</w>
In cognito</w>
man age</w>
dis tribs</w>
TRA VERSAL</w>
un m</w>
FI X
str ing
oth ers</w>
Separ ation</w>
Loc ators</w>
Commun ication</w>
cp index</w>
Ro ad</w>
EX IF
ow ned</w>
STU FF</w>
F T
t n
w anted</w>
b ps</w>
Tur n
Ma g</w>
ta tive</w>
sw it
SP IM</w>
ws rf</w>
sc ene</w>
a ip</w>
re fin
imp orter</w>
fr ame
DE COR
Bu ckets</w>
z is</w>
is es</w>
in ox</w>
co uld</w>
Mon ey</w>
SIGNIFICAN CE</w>
S MIME</w>
H P</w>
Se ver
Recogn izer</w>
spec ifier</w>
i de
hil bert</w>
L at
FIC ATE</w>
ti cker</w>
li ft</w>
Di g</w>
wr appers</w>
ur p</w>
Tre atment</w>
On c</w>
meas ures</w>
P ast</w>
MY SQL</w>
Do esnt</w>
pr m</w>
expir ation</w>
appro ximate</w>
INTERPRE TATION</w>
SERIALIZ ABLE</w>
Pur pose</w>
CO DE
FU MI</w>
wss policy</w>
tr a</w>
num rt</w>
Speci fi
REMO TE</w>
B ma</w>
ear ly</w>
al lowing</w>
Consum e</w>
Tra p</w>
REFER ENCES</w>
In sufficient</w>
Gu tter</w>
Del im</w>
CERTI FICATE</w>
S ftp</w>
C TYPE</w>
n db</w>
Inter actions</w>
FORE GROUND</w>
Cu toff</w>
sti ck</w>
adap ters</w>
Ar te
Re ferred</w>
R uler</w>
Elec tron</w>
sub menu</w>
recogn ized</w>
de partment</w>
ad a</w>
Y Y
Qu antile</w>
stre ams</w>
Tri p
PAN E</w>
N ick</w>
x ili
mic ro
Po sn</w>
F lip</w>
Ad vert</w>
O OL</w>
BR ACK</w>
pr acti
PO OL</w>
EN V</w>
tion als</w>
xili ary</w>
http header</w>
Mo mentum</w>
sh aring</w>
lar e</w>
f d
bro adcast</w>
Implemen tations</w>
C fs</w>
Te lephone</w>
O D</w>
MEDI A</w>
schedul ed</w>
i pc</w>
Re versed</w>
Less code</w>
L k</w>
CLAS SP
tri ggers</w>
our ly</w>
U A</w>
Par tner</w>
LO AD
Di ce</w>
mi xin</w>
b mp</w>
alig ned</w>
Fri endly</w>
to o</w>
hi er</w>
f set</w>
Scrol lbar</w>
Neg ated</w>
r ho</w>
fli cted</w>
di e</w>
Se a</w>
ic c</w>
Ver sioned</w>
Re minder</w>
SVN XML</w>
res erve</w>
av ed</w>
Sta n
em itter</w>
b inder</w>
MA J
B DD</w>
la s</w>
Tit les</w>
SIL ON</w>
Pack ets</w>
I DE</w>
Anim atable</w>
te station</w>
X max</w>
EP SILON</w>
De ath</w>
e vi
Stand ar
Lat tice</w>
EV ENTS</w>
sn ip</w>
oc tet</w>
interpre t</w>
OWN ER</w>
C p</w>
car ds</w>
ex ts</w>
Re use</w>
in stallation</w>
P x</w>
ti les</w>
ta ble
l h</w>
X M</w>
In stallation</w>
E MIT</w>
s mp</w>
i ma
Stream ing</w>
R NS</w>
Mi b</w>
I U</w>
xml ctf</w>
X min</w>
Coe ffs</w>
de mand</w>
Oper ating</w>
si fied</w>
Su spended</w>
M asks</w>
Ac cessors</w>
ob served</w>
Re pa
Pre conditions</w>
bl en</w>
F un
Expan der</w>
Blu r</w>
vi ty</w>
Seper ator</w>
Build ers</w>
uc tx</w>
li st
Li miter</w>
synchron ize</w>
mid i</w>
an z</w>
practi se</w>
gen package</w>
best practise</w>
Reci eved</w>
Mer ges</w>
CHEC KED</w>
is ation</w>
ag gr</w>
D AR
nowle d
den orm</w>
CAP ACITY</w>
L ab
CLASSI FIER</w>
re aders</w>
G I</w>
Ex iste
EXIF TIFF</w>
brigh ter</w>
G DB</w>
Compu tation</w>
in file</w>
f ront</w>
D V</w>
suc cessors</w>
lic i
el li
d rs</w>
m ic</w>
h or
G lyphs</w>
type setter</w>
WS DL
Ge o
Characteri stic</w>
stin gu
next lowest</w>
in text</w>
in clusive</w>
comp ressor</w>
Un modifiable</w>
IC S</w>
FR AME
n sym</w>
mat lab</w>
am aged</w>
x ffffffff</w>
t count</w>
ch mark</w>
Sour cable</w>
F lash</w>
inf later</w>
c ms</w>
off screen</w>
Su itable</w>
Ligh t
En ding</w>
as te</w>
RAD IO</w>
INVO K
Fi sh</w>
Compar ing</w>
Alter natives</w>
ex e</w>
step size</w>
out bound</w>
il led</w>
Rid or</w>
CE PT</w>
B s</w>
x fd</w>
ick name</w>
d ware</w>
SCHE ME</w>
x mi</w>
SI ONS</w>
Pro grams</w>
PLA Y
ms dt</w>
k v</w>
cross after</w>
Standar dize</w>
Ag ree</w>
ec ount</w>
RE CO
DO CS</w>
Cre ating</w>
Extern als</w>
B cel</w>
X WPF</w>
Scri pted</w>
LET TER</w>
la zed</w>
Boo ks</w>
B D</w>
sp y</w>
post ings</w>
ke up</w>
it al
Cast le</w>
s fc</w>
s ch
pre fer</w>
SI ST</w>
G lazed</w>
Discreti zation</w>
B ay</w>
bi rt</w>
VER IFY</w>
Ph rases</w>
on ential</w>
Jo iner</w>
DETA I
CLAS S
spec trum</w>
r se</w>
oql query</w>
n atural</w>
D h
q rt</w>
Sugg estions</w>
Sp eaker</w>
D PI</w>
k ers</w>
UNI CODE</w>
ti cks</w>
ter prise</w>
respon ding</w>
col lation</w>
Sk in</w>
Refe rent</w>
Parenthe ses</w>
H on
Full screen</w>
recogn ised</w>
modul o</w>
dep loy
D orian</w>
ws a</w>
stan dar
old ability</w>
Defini tely</w>
COMPRES SED</w>
en velop
to do</w>
j ax</w>
d fg</w>
Si des</w>
Cla uses</w>
qu ar
Ocr nce</w>
HT ML
CON F
CHAR GED</w>
Do g</w>
decor ated</w>
all ery</w>
Gre y</w>
BIO MOBY</w>
mal formed</w>
am l</w>
Integr ation</w>
CLO SING</w>
l v
W L</w>
MARSH AL
quali fiers</w>
no tes</w>
i height</w>
Spo ts</w>
ROLL BACK</w>
P UN
P OP
L hs</w>
INVOKE VIRTUAL</w>
A symmetric</w>
temp val</w>
t public</w>
l t
h value</w>
Desc rs</w>
Ga ins</w>
FLO OR</w>
stere o</w>
orig s</w>
e ff</w>
R rd</w>
GE X</w>
revo ke</w>
PRI ME</w>
CON CEPT</w>
re connect</w>
de ferred</w>
con crete</w>
T M
DEP LO
s di</w>
end able</w>
STAND AR
as c</w>
GIN S</w>
Fi eld
AL BU
check point</w>
ac tors</w>
Su n</w>
Seper ate</w>
K nots</w>
sta te
cu toff</w>
I code</w>
Gr and</w>
Ca nt</w>
An chors</w>
th is
t q</w>
find bugs</w>
Use less</w>
SHA RED</w>
n ln</w>
Ear ly</w>
D IN
A U</w>
long long</w>
f db</w>
m dl</w>
Wr appers</w>
Po int
off line</w>
min imize</w>
tr unc</w>
s creen
dat able</w>
aliz ing</w>
Un bound</w>
r type</w>
hibi ted</w>
an notate</w>
Str ong</w>
COLUM NS</w>
posi t</w>
objec t
dl form</w>
Ava il</w>
sc r</w>
p norm</w>
CLASSP ATH</w>
wor st</w>
as semble</w>
N ce</w>
IN S</w>
AD AP
ti er</w>
max x</w>
Re transmit</w>
MODEL GROUP</w>
IN VERSE</w>
CR LF</w>
p late</w>
no me</w>
in k
cri t</w>
co der</w>
instanti ating</w>
estim ators</w>
auth orize</w>
Ne ver</w>
Dro p
br ation</w>
U ne
STOPP ED</w>
o paque</w>
Mul tin
t cm</w>
j ce</w>
ca teg
AD B</w>
e b
anis ms</w>
LA UN
n id</w>
e o
TE X</w>
SER IES</w>
M u</w>
rec ipients</w>
SP H
En tp</w>
ap c</w>
MON E
trans actions</w>
deli ver</w>
REN DER
P lotting</w>
Infin ity</w>
C PA</w>
Aff iliation</w>
enac tments</w>
Highligh ted</w>
B A
l cg</w>
In stitution</w>
A mb</w>
oc cur
ma xy</w>
y att</w>
x att</w>
temp node</w>
ch un
Un saved</w>
substitu tor</w>
mini str
fin ger
TI L</w>
Op type</w>
Log o</w>
DE PRE
ex s</w>
ce lable</w>
Sc oring</w>
REACH ABLE</w>
OPEN ED</w>
CHAR S</w>
cor rection</w>
Tex ts</w>
Co he
for ced</w>
if ying</w>
exp lorer</w>
entr p</w>
Lab el
L H</w>
DUP LIC
syn the
sk in</w>
ro bot</w>
gres sive</w>
condi tioned</w>
Y max</w>
Ab bre
A d</w>
pro jected</w>
pic ture</w>
or ganism</w>
M S
F eld</w>
i val</w>
direc tl
d rm</w>
Th readed</w>
S ong</w>
Oc sp</w>
ter n</w>
ra ble</w>
per c</w>
bas is</w>
SU PER
Man age</w>
mp l</w>
j unction</w>
Ne goti
FI FO</w>
DIG ITS</w>
pri mitives</w>
m sing</w>
Tran sparent</w>
TY PE
Se lections</w>
JJ T
E mul
Code bits</w>
db i</w>
V ING</w>
To do</w>
meta model</w>
ab orting</w>
Or chestra</w>
Boun cy</w>
Off s</w>
DE STIN
Arg min</w>
Ac cumulator</w>
for k</w>
a z
R DN</w>
P AL
O ffer</w>
K ill</w>
go al</w>
Tr i</w>
Sh are</w>
ul ong</w>
lap lace</w>
g ression</w>
ce ding</w>
V s</w>
sh ip
se mantics</w>
ordin ate</w>
f all</w>
WORK SPACE</w>
Prote in</w>
IMA GES</w>
stu dio</w>
sp e</w>
rec ts</w>
Ship ment</w>
MOBY CENTRAL</w>
oc tets</w>
Fac tions</w>
DI VI
C Y
b web</w>
U dp</w>
Simil ar</w>
MEAS URE</w>
LIST EN
DRA G</w>
BOUN DS</w>
pi m</w>
ig no
z s</w>
n w</w>
lin k
s se</w>
Y min</w>
sh ots</w>
al phas</w>
XS LF</w>
Sin ks</w>
Boun ce</w>
trans lators</w>
m sp</w>
a de
U ATION</w>
Tor rent</w>
reconc ile</w>
ffi xes</w>
adju st
bg color</w>
R ig
Oc tal</w>
success ful</w>
ci i</w>
c pa</w>
Sh a</w>
J ms</w>
sin gletons</w>
r ant</w>
c tr
TAB BED</w>
K rb</w>
y ellow</w>
persi sted</w>
le aves</w>
W alk</w>
Re mainder</w>
PO W
Kon onen
Debu ggee</w>
s list</w>
lab or
W W</w>
PEN DING</w>
Entr ypoints</w>
li braries</w>
eni ent</w>
Re order</w>
Per sonal</w>
Hyper parameter</w>
W RI
vi c
Initi alizers</w>
COM MIT</w>
hi stogram</w>
SUPPOR TS</w>
K dc</w>
DE VICE</w>
en force</w>
duc ers</w>
X AC
Mo zilla</w>
BR AN
Y ears</w>
Di men</w>
ANALYZ ER</w>
x ctxt</w>
uti li
Uninter ruptible</w>
Confi rmed</w>
rep lica</w>
r dn</w>
j rs</w>
Sub st</w>
I HDR</w>
me mo</w>
b ul
PRI VI
Do mains</w>
Cryp t</w>
tmp node</w>
t one</w>
ec ome</w>
Autom aton</w>
Wh ich</w>
Ta ken</w>
MO VED</w>
BAS IC</w>
entr y
FU L</w>
ELE MENTS</w>
Comp lement</w>
work ers</w>
gg ered</w>
Contin uous</w>
v sock</w>
quen cies</w>
SUPP ORT</w>
P ts</w>
D id</w>
BU F</w>
tran script</w>
t p
ss tate</w>
re hash</w>
REPE AT</w>
ob j
att sel</w>
ap ing</w>
SELEC TOR</w>
LO SS</w>
unsatis fied</w>
Re draw</w>
Mon itored</w>
h on
form ers</w>
debu gf</w>
b if</w>
WSDL SOAP</w>
Synchroniz ers</w>
sh ader</w>
S ocks</w>
RE GEX</w>
r g</w>
hy ears</w>
Sol utions</w>
L MT</w>
D ry</w>
w aa</w>
R LE</w>
adap tee</w>
ren ces</w>
ne st</w>
g bl</w>
dec la
J SVG</w>
Fr u
DETA IL</w>
x fc</w>
overri dden</w>
fe red</w>
Se e
RE AS
PAN EL</w>
local ize</w>
WINDO WS</w>
PL AT
CH RON
re dundant</w>
lo aders</w>
en ting</w>
Gen es</w>
bo th</w>
oc sp</w>
g mf</w>
er ight</w>
PO IFS</w>
PLU GINS</w>
Con sist</w>
sti l
ac ctype</w>
Sen se</w>
Min imal</w>
z e
roll ment</w>
fir st
de select</w>
W ere</w>
TERMIN ATE</w>
Re entr
Deriv ation</w>
VISU ALIZE</w>
DEPEND EN
Arg o</w>
ori tes</w>
v alidity</w>
std v
out come</w>
ex clusive</w>
tra it</w>
t list</w>
t down</w>
flic ting</w>
er asure</w>
R ATE</w>
D b
ke file</w>
B RO
with in</w>
aspec ts</w>
Goo gle</w>
L sn</w>
no fficial</w>
de cessors</w>
N illable</w>
in ct</w>
a f
Subscri ptions</w>
Resi dual</w>
E igen</w>
DE SCEN
Compo ser</w>
In spec
F rag</w>
AR M
ten cy</w>
e ti
Compo sitor</w>
x j</w>
Ma t</w>
sp ell</w>
Smoo thing</w>
STAR T
BACK SPACE</w>
TOPIC TYPE</w>
Sym metric</w>
DECLAR ATIONS</w>
B attery</w>
VALID ATE</w>
F I</w>
CONF LIC
um d</w>
li gh
ex n</w>
ad ic</w>
D G
B IC</w>
ho ver</w>
Op al</w>
Introdu ce</w>
G ATION</w>
termin ated</w>
rec tangles</w>
cl amp</w>
A us</w>
dy n</w>
D on
ALBU M</w>
calcul ator</w>
app s</w>
Man tissa</w>
Fi ring</w>
P SE</w>
Imp ro
r blk</w>
pla nes</w>
i w
X YZ</w>
SA FE</w>
RE M</w>
Inten tions</w>
DI FF</w>
AUTO MATIC</w>
O set</w>
Do min
ma terial</w>
Predi cates</w>
A m
wh e
SQL SERVER</w>
saniti ze</w>
i ter
d stream</w>
cop ies</w>
B N</w>
S Y</w>
P wd</w>
D ns</w>
credi ts</w>
IN ACTIVE</w>
seri aliser</w>
re fine</w>
SAS L</w>
Mo bile</w>
Contribu tions</w>
p be</w>
con sider</w>
c and</w>
t cr</w>
an t
I LOAD</w>
Gr ant</w>
Exp onential</w>
De activated</w>
reg ular</w>
Fav orite</w>
c q</w>
Tri p</w>
I FE
EXP LICIT</w>
EN TATION</w>
stan d</w>
mapp able</w>
Fa ilover</w>
h ttps</w>
SQU ARE</w>
PIX EL</w>
P SV
M R
LAR GE</w>
Instan ceof</w>
x cf</w>
r ss</w>
fi sh</w>
Stan za</w>
P ins</w>
cle an
MI XED</w>
INST ALL</w>
F our</w>
log lk</w>
W ind</w>
M ut
Imp lement</w>
ex if</w>
an imated</w>
SYN CHRON
SYB INT</w>
PRE SS</w>
Au xiliary</w>
Re ported</w>
DESTIN ATION</w>
lici tly</w>
as cii</w>
PRIVI LE
FIL TER
E very</w>
x slt</w>
pr uning</w>
ms g
inte gr
cl ou
Multin omial</w>
tx t
Partition ing</w>
ob servable</w>
Rig id</w>
H MAC</w>
G HT
DER S</w>
pk gs</w>
k jc</w>
d bs</w>
g vt</w>
Web app</w>
SE C
S h</w>
Invo cations</w>
sy ms</w>
manag ers</w>
lo world</w>
envelop e</w>
HI ER
BO ARD</w>
curren tly</w>
Rel path</w>
thro ttle</w>
pi vo
SCH OOL</w>
MB ER</w>
Jo int</w>
de fa
F FI
Br ackets</w>
ra ted</w>
ic le</w>
a ce</w>
MU ST</w>
I I</w>
OVER FLOW</w>
G FF</w>
Con t</w>
ATT ACH
AN Y
disp osed</w>
be red</w>
PSV I</w>
ma jority</w>
St atuses</w>
j ournal</w>
en a</w>
Pur chase</w>
COMM ON</w>
th day</w>
Reentr ant</w>
Ho sting</w>
measu rement</w>
log ue</w>
ho ster</w>
Sav ing</w>
REAS ON</w>
JS DOC</w>
TRAN S</w>
J peg</w>
Gu ess
Col inear</w>
medi ately</w>
f ur
Norm alizer</w>
Cir cular</w>
ffi cult</w>
IN PUT
Redu ction</w>
L o</w>
Col labor
HIER ARCH
de ad
AU C</w>
applic able</w>
ang led</w>
Gener ations</w>
Contr ast</w>
B ds</w>
un available</w>
h mac</w>
b pp</w>
Perc ents</w>
Gu arded</w>
EXEC UTION</w>
w lp</w>
i stmt</w>
WOR DS</w>
Re org</w>
Fil ler</w>
the sis</w>
min i</w>
ho liday</w>
Pla nes</w>
L B</w>
Im m</w>
ST OR
h air</w>
d ups</w>
bio moby</w>
q f</w>
li ttle</w>
can onic
R ings</w>
Ma jority</w>
Exp lo
Comb ine</w>
cl z</w>
T UR
Sp an
F R</w>
De grees</w>
Repl acer</w>
For bidden</w>
k dc</w>
avel et</w>
PRE V</w>
Inher it</w>
As k</w>
t ps</w>
ML P</w>
Fin alize</w>
ro c</w>
local host</w>
u red</w>
R df</w>
J P</w>
x start</w>
mar s</w>
RU LES</w>
Fi re
Em bed
BO M</w>
ne edle</w>
adap table</w>
ad ditions</w>
Rep lic
Re jected</w>
Path name</w>
In ser
X dr</w>
Short cuts</w>
SY BASE</w>
PAL ETTE</w>
th else</w>
end time</w>
c action</w>
an te</w>
Ke eper</w>
D V
Calcul ation</w>
ilo ting</w>
pre cise</w>
mp le
ed i</w>
ch g</w>
De reference</w>
BE T
re definition</w>
p num</w>
itera ble</w>
Null ability</w>
tar get
sub array</w>
W ays</w>
FO O</w>
hi erarchies</w>
Id l</w>
y x</w>
up to</w>
u es</w>
mb y</w>
file chooser</w>
el come</w>
cl ss</w>
Sub graphs</w>
High est</w>
super seded</w>
qu ant</w>
AS C</w>
spec s</w>
Auth or
sh ut</w>
re x
ch k</w>
INVOKE STATIC</w>
B AND</w>
transi tions</w>
sec ondaries</w>
pre set</w>
e o</w>
Me dian</w>
IC DI</w>
For mby</w>
F M</w>
S word</w>
Pro gression</w>
J I</w>
w ant</w>
LAY ER</w>
Instr uments</w>
INST ITUTION</w>
Fr anz</w>
ver sible</w>
roun ded</w>
Separ ated</w>
NV L</w>
Inf lu
Di stingu
sav e
ol lar</w>
a tion
wi ce</w>
tro gen</w>
d pi</w>
Tra verse</w>
M td</w>
d str</w>
cryp tor</w>
compo sitor</w>
BRAN CH</w>
l la
gre edy</w>
S ORS</w>
E FF
D X</w>
00 16</w>
em es</w>
check out</w>
SE Q</w>
f dp</w>
Assi stant</w>
zip code</w>
z oo
c qd</w>
RA I
Pi ped</w>
sv ne</w>
p j</w>
di alogs</w>
Sh uffle</w>
Ch ado</w>
an im
mar gins</w>
Tex tual</w>
Soci ety</w>
Search able</w>
N ATE</w>
ACTIV ATED</w>
mb s</w>
in spection</w>
PLAT FORM</w>
x xx</w>
sh if
r vm</w>
man ual</w>
magni tude</w>
lo comotive</w>
balan cer</w>
Visu als</w>
MULTI INSTANCE</w>
JU ST
spo on</w>
en capsulated</w>
directl ink
cur ation</w>
L N</w>
AT EG
w ind
ter rain</w>
d mc</w>
d enumerator</w>
Sn ap</w>
gh put</w>
er rd</w>
Re writer</w>
Ou tage</w>
NO TATION</w>
H INT</w>
Datab ases</w>
BE PP</w>
wor ks</w>
scrol lbar</w>
op posite</w>
oc a</w>
a o</w>
Un icast</w>
Mar ket</w>
F mt</w>
Classi fications</w>
ur on</w>
pack ets</w>
Ti po</w>
Ma teri
H REF</w>
Discreti zer</w>
Conven tion</w>
C e
un box</w>
ten ti
si mpli
ph er
c ite</w>
best psum</w>
u e
ter ance</w>
gra bber</w>
TRI ANGLE</w>
Lo sses</w>
m achine</w>
c ds</w>
bl obs</w>
X val</w>
Swapp able</w>
Imp lies</w>
Di ameter</w>
Bra ces</w>
s end
ref err
pag e
h dfs</w>
Navig ate</w>
Ar ch</w>
tra ffic</w>
Perman ently</w>
copy right</w>
b ay</w>
ad able</w>
Cha ined</w>
samp le
bl dr</w>
alter native</w>
pre mises</w>
alter natives</w>
Pl at
n val</w>
VI OUS</w>
UN REACHABLE</w>
Tr ade</w>
FC BF</w>
x s
work around</w>
n cm</w>
lay s</w>
directlink property</w>
Sen sors</w>
PER IO
D G</w>
oc c</w>
l li
db t</w>
ch all
ab br</w>
Swe de</w>
STR O
F p</w>
at ur
Hyp h
r bd</w>
p lo
c tr</w>
Un bounded</w>
Interpol ator</w>
De que</w>
CURRE N
Bal loon</w>
Ar chetype</w>
Su cc</w>
exp entry</w>
U sable</w>
Ex cept</w>
cas es</w>
S V</w>
PUN CT
sub frame</w>
queu ed</w>
jd os</w>
impro ved</w>
ak t</w>
U l
J us
Identi cal</w>
I mm
Q O</w>
ID REF</w>
H FS</w>
AS SE
inter change</w>
fi shes</w>
Mi sses</w>
IO I</w>
Con sts</w>
ou n</w>
log p</w>
i an</w>
auth n</w>
Resol vers</w>
FFFFFFFF L</w>
F asta</w>
ver bosity</w>
REPL AC
Pre fetch</w>
AB ORT</w>
scri minator</w>
refe rent</w>
leg acy</w>
col lator</w>
co don</w>
R ights</w>
M AL
DUPLIC ATE</w>
y o</w>
respon der</w>
eli ef</w>
di ce</w>
Eli m</w>
AC LE</w>
sig ht</w>
T v</w>
Sub routine</w>
PUNCT UATION</w>
M VEL</w>
p sq</w>
Un mar
Mun ger</w>
INFIN ITE</w>
AS SIST</w>
WS A</w>
Can onic
sti ll</w>
c nonce</w>
MI SC</w>
G nu</w>
h a</w>
Commun icator</w>
prin cipals</w>
mo vement</w>
e person</w>
T in
REQU EST
Gra ils</w>
per case</w>
pas ses</w>
he uristic</w>
Decryp t</w>
POW ER</w>
H oldability</w>
DB G</w>
yy text</w>
n bytes</w>
ex i
ag on</w>
GG GG
C PE</w>
j mx</w>
U OUS</w>
Tab ular</w>
P k</w>
Out comes</w>
Bu bble</w>
under line</w>
speci fication</w>
n num</w>
au gmen
V C</w>
UR AL</w>
Inde x
df lare</w>
tor rent</w>
s low</w>
fu sc
Wi fi</w>
Pr i</w>
PRO GRE
NA VI
MU L</w>
F L</w>
le f
fer ior</w>
b box</w>
TIN Y
T ill</w>
G tk</w>
DOT TED</w>
DI C
fri ends</w>
clou dflare</w>
adjust ment</w>
T L</w>
Rob ot</w>
B IN</w>
St d
Dead lock</w>
Control led</w>
sc i</w>
de precated</w>
IT ING</w>
D record</w>
Che at</w>
an on</w>
aliz ations</w>
El li
tan ts</w>
modi fs</w>
la tions</w>
at f</w>
w ins</w>
RT L</w>
Prin cipals</w>
Me d</w>
den ces</w>
Sub sum
PE ER</w>
Ger onimo</w>
b fb</w>
UN QUALIFIED</w>
Sub sequence</w>
Reque sting</w>
Particip ants</w>
TINY INT</w>
RG BA</w>
In sight</w>
sh uffle</w>
SUM MARY</w>
Queu es</w>
I x</w>
I FIED</w>
Con textu
CRO S
fun ction
ff e</w>
Null ness</w>
Ma kes</w>
h al
wri teable</w>
re use</w>
ep h</w>
con currency</w>
Wor d
WOR D
SO C
Imp rev
re ase</w>
po int
G L
Divi de</w>
Dimen sionality</w>
Ac k
repres entation</w>
p ass
arch i
T ours</w>
PACK A
Gu ess</w>
substitu tions</w>
buffer size</w>
OVER RI
re covery</w>
r q</w>
contr ast</w>
m w</w>
k c</w>
Radi ans</w>
Ph ases</w>
Pas sphrase</w>
h sb</w>
f rac</w>
exp entries</w>
caps ule</w>
Op timize</w>
INITIALIZ ER</w>
X a</w>
TL V</w>
C flow</w>
w k
paren t
Trans mission</w>
P ick
Im mediately</w>
on tology</w>
mi es</w>
car rier</w>
MAX IMUM</w>
En crypt</w>
Conver ted</w>
she ight</w>
ah l</w>
Or ders</w>
Flex ible</w>
Execu tors</w>
Can cel
R ACE</w>
rou tes</w>
ql sp</w>
jet ty</w>
XML BIF</w>
W est</w>
Al locator</w>
ANCE STOR</w>
A IN</w>
ve to</w>
Pas sive</w>
Lin ker</w>
De provisioning</w>
l an</w>
contribu tor</w>
consiste nt</w>
SHA DO
Li ft</w>
implemen tations</w>
SU ME</w>
LE M</w>
divi sor</w>
Suc ceeded</w>
HE P</w>
Ca li
V ECTOR</w>
REN DER</w>
P ct</w>
DG PSP</w>
Typ ing</w>
Imp or
it count</w>
ber ing</w>
ac tly</w>
PROGRE SS</w>
ORI ENT</w>
m ri</w>
Un conditioned</w>
Spe ech</w>
MA N</w>
read only</w>
de tected</w>
avi est</w>
WH ERE</w>
OR ACLE</w>
An no</w>
is a</w>
chro ma</w>
T X</w>
Po table</w>
Interce ptors</w>
Dele tes</w>
wa rehouse</w>
c ting</w>
Un committed</w>
Pas ses</w>
MAJ OR</w>
CON SO
Ci tation</w>
neighb or
ma j</w>
dele tion</w>
X D
t bc</w>
po c</w>
b elow</w>
In ferred</w>
Cle ared</w>
un sorted</w>
fil t</w>
Time stamps</w>
Adap ting</w>
AS M</w>
th ickness</w>
occurren ce</w>
d rain</w>
build ers</w>
T W</w>
Light weight</w>
Ar ti
A ffi
si bility</w>
lo p</w>
ap e
STAT E
Guess er</w>
D DI</w>
neighb ors</w>
n ms</w>
fini shing</w>
d chisq</w>
C DT</w>
pr g</w>
j sr</w>
an a</w>
c g
SE C</w>
RELE ASE</w>
Imp lied</w>
introdu ction</w>
cli ents</w>
Speci alization</w>
S AME</w>
F ER</w>
Extru der</w>
C rt</w>
Adju sted</w>
sy mbolic</w>
REG ULAR</w>
Fa x</w>
A ir
throu gh</w>
me l</w>
O ids</w>
CL ICK</w>
x ref</w>
equi pments</w>
SI C
S b</w>
REP LY</w>
PREFER ENCE</w>
G AU
DE AD</w>
Con ds</w>
tim ed</w>
lin enumber</w>
endi dx</w>
Loc atable</w>
pro jec
def ending</w>
W WW</w>
Sk etch</w>
RAI SED</w>
k w
il ot</w>
f oo
ap ons</w>
WORK ING</w>
Ca rt</w>
dis miss</w>
c pe</w>
Ni trogen</w>
BET WE
po lev
polev l</w>
expir y</w>
Pres enter</w>
Dur ing</w>
lap s</w>
Vo tes</w>
Sk ew</w>
ENCO DED</w>
ra d</w>
me page</w>
Te sted</w>
UN RELATED</w>
RELE AS
C ul
le g</w>
en han
c info</w>
O df</w>
In cluding</w>
p sm</w>
agg able</w>
acce ler
He ights</w>
EX IST</w>
an chr</w>
Unmar sal</w>
I LE</w>
n n
EC IAL</w>
j s
f ar</w>
c bc</w>
Z i
Web site</w>
PRO TO</w>
Expo sure</w>
En terprise</w>
s b
c lic
Targe table</w>
Eigen values</w>
CAP T
exp orts</w>
er case</w>
d scanw</w>
b ind
CONSO LE</w>
vo la
h ql</w>
constr ucted</w>
V en
Se t
LET ON</w>
C rop</w>
Bien en</w>
Be tas</w>
n t
his class</w>
ah a</w>
A kaike</w>
sal es</w>
per mit</w>
m ap
X slt</w>
D ASH
rc vl</w>
pe ople</w>
chi er</w>
Word wrap</w>
Tr an</w>
SEN SOR</w>
Pre processing</w>
pre process</w>
l start</w>
a ult</w>
Repres en
R PG</w>
Men us</w>
Hi st</w>
E os</w>
tr ate</w>
S ch</w>
I EEE</w>
pro f</w>
de layed</w>
SCH ED
Ms gs</w>
INVOK ESP
INVOKESP ECIAL</w>
ACCE P
sub class</w>
pho to</w>
on gs</w>
n br</w>
k bd</w>
in fer</w>
ar b
Re setter</w>
l ore</w>
impor tant</w>
contr acted</w>
a ce
Sub types</w>
Mic ro
l al
im m</w>
ene tre</w>
TE CH</w>
Spec ify</w>
COMP ATI
tru ck</w>
d fn</w>
ca info</w>
reque ster</w>
inher it</w>
re ac
in ventory</w>
LI MITED</w>
Car go</w>
C UI</w>
Archi ver</w>
sy s
suc cessor</w>
j ars</w>
Sn ip</w>
On mouse
G dk</w>
Deco ded</w>
Synchron izable</w>
Mu tations</w>
u ids</w>
re populate</w>
re le
l sn</w>
Qu ar
Jo ins</w>
Compu table</w>
mic ro</w>
exp lo
Un conditional</w>
TOOL BAR</w>
O th
Mon ths</w>
D ou
u ssion</w>
n age</w>
Sto mp</w>
Ma ybe</w>
C m
t db</w>
re run</w>
Di ffs</w>
00 8</w>
ve sti
scri pts</w>
el ic
c t
a q</w>
U ris</w>
She ets</w>
Rou tes</w>
Pre amble</w>
P iloting</w>
LIN E
Kononen ko</w>
ho t
chang ecount</w>
ca te
SQL XML</w>
Ho ster</w>
Auth orities</w>
resol vers</w>
e ding</w>
datas ource</w>
associ ate</w>
app lies</w>
Sub context</w>
SU SP
STR ATEG
STAN CE</w>
POSI TE</w>
OP POSITE</w>
M DS</w>
F resh</w>
Cap tured</w>
my match</w>
Id r</w>
li bs</w>
is i</w>
con forms</w>
Zer o
SW AP</w>
ADV AN
best minprob</w>
aim for</w>
TYP ED</w>
Per f</w>
stop words</w>
ital ic</w>
g q</w>
attach ments</w>
N IO</w>
MAIN TEN
An te
ta ted</w>
in verted</w>
im ized</w>
ffi ce</w>
av g
HIERARCH Y</w>
Gri d
Con cat</w>
Casc ade</w>
Ca che
wri table</w>
OP A
I pp</w>
ver ing</w>
su t</w>
st at
rep l</w>
multi cast</w>
mo id</w>
m ac
gr and
Sever ities</w>
ori ti
jo int</w>
TRU ST</w>
ST E
L as
Y EL
ENUMER ATION</w>
Sub stract</w>
m ass</w>
YEL LOW</w>
Al located</w>
ARM OR</w>
AD DI
ste pname</w>
moc ked</w>
initi alised</w>
P an
Dat alinks</w>
we ak</w>
navig ation</w>
al located</w>
K jc</w>
i er</w>
ARTI FACT</w>
st ock</w>
ex po
ans ing</w>
IMP OR
COMPLE TION</w>
compati bility</w>
Inter actor</w>
Cr on</w>
sin ce</w>
Super type</w>
Rec ipients</w>
DE M
0 16</w>
fr act</w>
exp lain</w>
DI M</w>
AT TR
con ds</w>
as cent</w>
G i</w>
BETWE EN</w>
o my</w>
HO USE</w>
Confi gurer</w>
Chang eset</w>
Ack nowled
r df</w>
ne cessary</w>
intro spected</w>
e igen</w>
Stra teg
State less</w>
MONIT OR</w>
Implemen ting</w>
An ti</w>
LISTEN ER</w>
INVOKE INTERFACE</w>
Di sc</w>
AL TER
i frame</w>
font color</w>
Po w</w>
Comb at</w>
om ero</w>
let on</w>
c as</w>
SO S</w>
Laun ching</w>
Fre quencies</w>
An cestry</w>
er ature</w>
c sq</w>
REACH ED</w>
END POINT</w>
CL AN</w>
v ect</w>
man tissa</w>
equ ality</w>
d st
separ ators</w>
row th</w>
finger print</w>
St orable</w>
Shu tter</w>
m andatory</w>
W srf</w>
OPA QUE</w>
to go</w>
Re build</w>
Pre decessor</w>
G IF</w>
DAR K</w>
s ash</w>
extr u
ch ilds</w>
la cement</w>
el le</w>
G M</w>
col ate</w>
Pi pes</w>
N ICE</w>
GET FIELD</w>
Y MENT</w>
Plu g</w>
Overri ding</w>
MAN IF
MANIF EST</w>
F in</w>
Extern alizable</w>
pr ack</w>
per f</w>
form at
Se ven</w>
F b</w>
AB ILITY</w>
lal r</w>
invo ice</w>
PAC KED</w>
ITER ATOR</w>
Happ ened</w>
std err</w>
Modi fications</w>
Lin ux</w>
CONFI DENCE</w>
lea ked</w>
ev als</w>
c am</w>
Oc cup
J mri</w>
Inspec tions</w>
Im ageable</w>
synchron izer</w>
g bean</w>
Sal es</w>
Ref lected</w>
I so</w>
Disc ard</w>
IG NO
A BO
ta ges</w>
SING LETON</w>
Pas swd</w>
Ex c</w>
is bn</w>
h ad</w>
ali ve</w>
CO DES</w>
C red</w>
ra tes</w>
hol ds</w>
e bs</w>
The ta</w>
SU T</w>
Pen alty</w>
M G</w>
EC DHE</w>
DO MX</w>
sto res</w>
ang les</w>
Sc atter</w>
INITIALIZ ED</w>
k ely</w>
Supp ly</w>
SP AR
s op</w>
Sta ble</w>
Sa kai</w>
RO PY</w>
ORDER ING</w>
ADVAN CED</w>
or th
W MA</w>
M ount</w>
Loc s</w>
ol ding</w>
ac cum</w>
H or
restri ctions</w>
Ren amed</w>
IC SS</w>
ip l</w>
g w</w>
bit set</w>
le ader</w>
boun ding</w>
LOG GED</w>
B onds</w>
w h</w>
oc cup
b pos</w>
Name q</w>
CH UNK
s data</w>
re weight</w>
p py</w>
l anguages</w>
TE X
LONG VARBINARY</w>
A ver
valid ating</w>
coordin ate</w>
Te acher</w>
O gg</w>
Co ur
Back wards</w>
ta bility</w>
ol dest</w>
Stop per</w>
Min e
K nn</w>
Gen re</w>
ENT ROPY</w>
Class names</w>
CER T
ad dres
W SS</w>
STRIC T</w>
E H</w>
Analy ze</w>
A mpli
ap ri
Sli p</w>
Kon to</w>
D IO</w>
un til</w>
om i</w>
f uid</w>
Type def</w>
Reach able</w>
par k</w>
me ss</w>
ger onimo</w>
f av
W ert</w>
PY TH
O OB</w>
FILE SERVER</w>
De ref</w>
Up stream</w>
I DE
H uman</w>
Ex pert</w>
Bro ad
yy begin</w>
re definitions</w>
ex l</w>
Wa rehouse</w>
Per son
z f</w>
invo kes</w>
gen s</w>
cip ator</w>
c rea
bl ig
Qu i
O h
La titude</w>
CES S
C W</w>
Byte stream</w>
un marshall</w>
c db</w>
SERV LET</w>
E vi
visi bilities</w>
struc tures</w>
sn iff</w>
r ni</w>
pre f
m igrate</w>
i max</w>
Re plot</w>
G GER</w>
ne ar</w>
Instanti ated</w>
Contextu alized</w>
ge tenv</w>
G PP</w>
prin table</w>
POL Y
Top icmap</w>
Sh ortest</w>
SO P</w>
SCHED U
R out
LLI A</w>
ICON S</w>
CAME LLIA</w>
x inco</w>
ri ers</w>
r tf</w>
out data</w>
no s</w>
l dr</w>
con current</w>
ad or</w>
tr k</w>
sub str</w>
r seed</w>
Wi ring</w>
ST ATI
Rout ine</w>
Quer cus</w>
vola tile</w>
so li
sli ces</w>
STANDAR DI
STANDARDI ZE</w>
PERIO D</w>
Oper ators</w>
OC TET</w>
MAR KED</w>
L TI</w>
wi ck</w>
th ane</w>
tar ge
occur ance</w>
current class</w>
TL R</w>
Fa vicon</w>
D ONT</w>
str m</w>
local es</w>
i ri
T al
Se micolon</w>
JEC TS</w>
instr uments</w>
b ins</w>
am ond</w>
WEIGHT S</w>
TRI GGER</w>
S ke
S UN
sip uri</w>
lo op
cross before</w>
WR APP
T ORS</w>
LOC K
y t</w>
log o</w>
l value</w>
is c</w>
inten tion</w>
at tr
SUB TYPE</w>
Ne wick</w>
Hydro gen</w>
Dri ve</w>
D r</w>
Comp os
Ad ditions</w>
AL L
u sh</w>
per mutation</w>
o sm</w>
ma il
ch n</w>
Overri dden</w>
A x</w>
k tar</w>
free ze</w>
FIEL D
E AX</w>
DIG EST</w>
n si</w>
Roun ding</w>
Registr ar</w>
P IC
MAC HEP</w>
F ON
Colo red</w>
SYB MONE
MILLI S</w>
Differen tial</w>
Dep endents</w>
De stinations</w>
DI R
Cle an
sr c
Sti cky</w>
Pix buf</w>
HEAD ERS</w>
is ode</w>
gr adle</w>
f rc</w>
T ap</w>
EDIT ABLE</w>
AS SERT</w>
stabl ished</w>
pi eces</w>
kon to</w>
SHADO W</w>
DETAI LS</w>
A F</w>
Re versible</w>
LOC KED</w>
C ATED</w>
q e</w>
control led</w>
cep tional</w>
O lder</w>
MI D
res src</w>
ou gh</w>
ock ets</w>
m ressrc</w>
evi ct</w>
ac tu
Un install</w>
ST IC</w>
Dead line</w>
Cohe rence</w>
Code stream</w>
char ge</w>
al titude</w>
No tice</w>
GE F</w>
um ed</w>
ex cepts</w>
MI S
DE STRO
re ordered</w>
n rs</w>
loc o</w>
Tex lipse</w>
LE X
Fi xes</w>
organ ization</w>
in ations</w>
e poch</w>
de ad</w>
R UP
Credi t</w>
CRE ATED</w>
x ffffff</w>
ro is</w>
place holder</w>
ori a</w>
nr cs</w>
identi fiers</w>
ch e</w>
ch an</w>
l name</w>
gres ql</w>
c bs</w>
amb iguous</w>
Mun ition</w>
str at</w>
file set</w>
SUC CESS
Res ul
Lon gitude</w>
re defined</w>
ex prs</w>
IC MP
B ES</w>
x points</w>
or g
ke yp
Un changed</w>
TIM ES</w>
STR IP</w>
R HS</w>
P sm</w>
Al titude</w>
sh ortest</w>
i re</w>
chro mosome</w>
Sup por
PASS WD</w>
nu tella</w>
li dx</w>
b onds</w>
U INT</w>
TRI M</w>
REGISTR ATION</w>
G nutella</w>
g ons</w>
Un versioned</w>
R a</w>
Con sequences</w>
Be an
refin ement</w>
quali fy</w>
comm un
un ify</w>
pur chase</w>
code gen</w>
br a</w>
b ad
ab f</w>
S ortable</w>
Play ing</w>
Parame ter
Ex if</w>
ow ners</w>
f h
bl ist</w>
O m
Dri vers</w>
ta cts</w>
oo stream</w>
mi x</w>
Sil ently</w>
Ren e
Esc apes</w>
COMPAR ATOR</w>
TO O</w>
SSI ONS</w>
SC AN</w>
Pro pag
G allery</w>
Aggreg ator</w>
l apping</w>
el m</w>
Mon o</w>
Liste n</w>
Inte gers</w>
Gro up
BY TE
Alph abe
po pop</w>
l block</w>
e gs</w>
S URE</w>
Cer tification</w>
t stop</w>
par sers</w>
m acros</w>
I v</w>
Ho liday</w>
Fre e
Ampli tude</w>
AUTHENTIC ATION</w>
lon gest</w>
V or
REG RES
Pho to</w>
Cou ple</w>
B ypass</w>
appro ve</w>
a aa</w>
ta dd</w>
pre vt</w>
k start</w>
is o
di al</w>
ch ild
PAC KET</w>
Imp act</w>
EXTEN DS</w>
Decryp tor</w>
Ch i</w>
CLU STER</w>
AN GE</w>
un i</w>
add rs</w>
V world</w>
TI P</w>
Sign in</w>
S alt</w>
ON KEY
LR M</w>
Cho colate</w>
simil ar</w>
r ic</w>
new lines</w>
mon ey</w>
tr ape
Trans forms</w>
Super vised</w>
Analy zes</w>
L BRACK</w>
main tain</w>
registr ar</w>
n ss</w>
Re vert</w>
Modi fi
key gen</w>
Tra il</w>
Flo atable</w>
B RI
AN TLR</w>
simpli fy</w>
h icle</w>
Pro positional</w>
Occu rences</w>
Im ag
C K
pad der</w>
Repe ats</w>
Dash board</w>
Cen tered</w>
Author isation</w>
x en</w>
trans f</w>
p sr</w>
ol ds</w>
jo ined</w>
f nfe</w>
T V</w>
ORI ENTATION</w>
Mess enger</w>
MEMB ER
Foo t
C TS</w>
AR M</w>
id r</w>
TA X</w>
SER VED</w>
Direc tions</w>
ker note</w>
Deli vered</w>
pe er
l pane</w>
dat atypes</w>
Parenthe sis</w>
h au
Fil enames</w>
Cr set</w>
Cha ins</w>
t reat</w>
hoo ks</w>
boo sted</w>
St k</w>
QU IR
J CE</w>
De x</w>
Ac tivi
si re</w>
Fav orites</w>
YA ML</w>
TIN Y</w>
L e</w>
H ard</w>
STRATEG Y</w>
Mi ss
K GD</w>
E m</w>
righ t
q i</w>
num egs</w>
m start</w>
ex clusions</w>
Lo bj</w>
I tr</w>
D p</w>
B AL
cach ing</w>
ab e</w>
Ste mm
S MI
Fa iling</w>
Ben chmark</w>
Ass ets</w>
umbna ils</w>
ren der
fix ups</w>
bu ddy</w>
Lo west</w>
G lass</w>
De pre
CLU STER
sh u
ran k
d ents</w>
Un caught</w>
H A</w>
Announ cement</w>
sample size</w>
SI BLE</w>
Produ it</w>
H obj</w>
G I
Dh cp</w>
prote in</w>
in ferior</w>
fin est</w>
c di</w>
best diff</w>
avg prob</w>
Oh pi</w>
COM BIN
v id</w>
sm all
c mds</w>
at ten
Un specified</w>
Transi tions</w>
Ro xen</w>
B OR</w>
wa ittime</w>
per p</w>
field name</w>
con tribution</w>
Qu ick
P atches</w>
Disc ussion</w>
C ID</w>
Asc endants</w>
sa e</w>
in teg
fi tting</w>
e e
RI L</w>
Play back</w>
Iter ating</w>
Cat code</w>
Cache able</w>
rec ur</w>
decla res</w>
Or ph
resi dual</w>
local ized</w>
lear ned</w>
S or
Mu tual</w>
thod ref</w>
n ung</w>
T LD</w>
Re orient</w>
draw n</w>
DE TERMIN
Bir thday</w>
un compressed</w>
control links</w>
bl ah</w>
Position able</w>
sta ff</w>
fa ce
W aste</w>
Fr ag
F tp</w>
Co s</w>
C dr</w>
cer tificates</w>
ang o</w>
To ast</w>
SA M</w>
FR ONT</w>
Trun cated</w>
R paren</w>
t len</w>
delta phi</w>
WRI TER</w>
re ported</w>
p oller</w>
om er</w>
e vidence</w>
du res</w>
bar rier</w>
SET UP</w>
EN CRY
EC H</w>
CRE ATION</w>
ASSE MB
S ENT</w>
L paren</w>
Acce ssion</w>
AU DIO</w>
sq t</w>
iri cal</w>
g regorian</w>
SUCCESS FUL</w>
Origin ating</w>
wr apping</w>
ra ft</w>
mar king</w>
tra y</w>
lo a</w>
bro ken</w>
re main</w>
mploy ees</w>
Uni verse</w>
TEST S</w>
rep lic
Random ized</w>
O ME
Enabl ement</w>
fa vour
el der</w>
WH ILE</w>
Hi b</w>
H SQL</w>
ASSEMB LY</w>
te res</w>
ph rase</w>
j i
NOR M</w>
M ins</w>
CL S</w>
t s
ho a</w>
fi b</w>
d ur
to m</w>
U NU
T iling</w>
hash ed</w>
e ments</w>
a is</w>
NM TOKEN</w>
M CV</w>
Hel loworld</w>
F ur
Condi tionals</w>
CALL ING</w>
se p
s ong</w>
XAC ML</w>
Out liers</w>
u v</w>
parti tions</w>
lla bus</w>
dat aflows</w>
d set</w>
colli sion</w>
H eld</w>
EN TRIES</w>
local name</w>
in active</w>
d cm</w>
Tri ggered</w>
Th emes</w>
DATAS ET</w>
CHECK BOX</w>
tern ary</w>
per sons</w>
auto matic</w>
Time slot</w>
S di</w>
R R</w>
M ade</w>
J DL</w>
CONTIN UOUS</w>
Te ar</w>
Declar ators</w>
ma ble</w>
et ched</w>
ci al</w>
TO L</w>
Exp orts</w>
Da tetime</w>
Cor ners</w>
CT OR</w>
bu nd
ad vi
SI ON
G AN
nul li
inst aller</w>
FOR B
Consiste nt</w>
Star ter</w>
SUN DAY</w>
S thelse</w>
FLA T</w>
D ue</w>
Bo xed</w>
x mp</w>
read ing</w>
q os</w>
M NE
simul ate</w>
evalu ators</w>
ci o</w>
Ko ordinate</w>
b ra
X HTML</w>
Web application</w>
MO VE
Ad verti
tu rer</w>
no logy</w>
lo we
li est</w>
gu res</w>
dat alist</w>
da te
ab yte</w>
m angled</w>
d s
X ul</w>
T X
N ATURE</w>
Inher itor</w>
COUN TER</w>
Substitu tions</w>
EXP AN
S gm</w>
O I</w>
G am
An tlr</w>
0000 0000</w>
super type</w>
in visible</w>
app a</w>
We aving</w>
O le</w>
GE ST
p dom</w>
g us</w>
SV G
Re definition</w>
R ich</w>
MON TH
I ne
BU SY</w>
t ally</w>
g lyphs</w>
H ouse</w>
he aviest</w>
e pochs</w>
dri ft</w>
clo sures</w>
F REQ</w>
la m</w>
hi m</w>
SE ED</w>
S ch
Per formances</w>
H ER
po l</w>
TH U
RES H</w>
Pur ge</w>
Over all</w>
C d
z x</w>
y z</w>
si ties</w>
s ory</w>
ref resh
PRE VIOUS</w>
Inde xing</w>
Bean info</w>
j ta</w>
Throw ing</w>
Sy s
SVNU I</w>
Bo mb</w>
B T</w>
n ary</w>
Supp lied</w>
In fer
Di gester</w>
Correc tions</w>
f an</w>
UL TR
SYN THE
N d</w>
Fin ishing</w>
E FLAG</w>
Di agonal</w>
DO R</w>
Au x</w>
mi b</w>
g zos</w>
c di
bran ches</w>
U su
P DA</w>
O dds</w>
Ne wer</w>
K t</w>
Cano py</w>
COM MEN
u idx</w>
st ype</w>
cu it</w>
Optim izations</w>
L t</w>
L nk</w>
CHECK ABLE</w>
utili ty</w>
men us</w>
e ig</w>
al e
W all</w>
MNE MON
K inds</w>
F Q
n points</w>
l diff</w>
Pa t</w>
L bl</w>
E I</w>
valu es
t ys</w>
p pm</w>
or ical</w>
on omy</w>
h illclimb</w>
gu arded</w>
do mains</w>
U S
FI ERS</w>
En cryptor</w>
E d</w>
Con fs</w>
Appro ve</w>
Amb ig
z c</w>
ins ic</w>
h pps</w>
ex mp</w>
Z pure</w>
Sta cked</w>
Serv ing</w>
K M</w>
He avy</w>
y l</w>
tri cal</w>
te es</w>
par allelize</w>
Suppor ting</w>
Super seded</w>
Ji mple</w>
tra il</w>
referr al</w>
qui et</w>
or ms</w>
op ping</w>
UN CHECKABLE</w>
LO ADING</w>
Cap s</w>
CONTEN TS</w>
t done</w>
queu es</w>
UNU SED</w>
Sta rs</w>
Pro of</w>
um ent
tr insic</w>
re placements</w>
issu es</w>
SA C</w>
In cr</w>
Har dware</w>
DEBUG OUT</w>
sk ip
r l
optim izer</w>
er sopt</w>
Sugg est</w>
Si blings</w>
ti de</w>
mb rs</w>
f object</w>
a teable</w>
FORB IDDEN</w>
Er r
Di agnostics</w>
Cap ital</w>
co t</w>
canonic alize</w>
K id</w>
Def later</w>
DECOR ATOR</w>
im age
ec f</w>
d op</w>
MOD AL</w>
L dc</w>
Ga teway</w>
An not
stri pes</w>
standar dize</w>
f u</w>
e ster</w>
chall eng
W avelet</w>
LE G</w>
multip lic
li mits</w>
d c
ac i</w>
We aver</w>
Ser ve</w>
MNEMON IC</w>
Ho mepage</w>
CON SUM
d p
ch ado</w>
Valid ators</w>
Th resh
Pre fered</w>
H ull</w>
H uffman</w>
t z
t sp</w>
whe el</w>
prec is</w>
mu t</w>
monit ors</w>
h ex
e ver</w>
Up to</w>
Type setter</w>
SYN TAX</w>
STAR TING</w>
PYTH ON</w>
Desc ending</w>
DE CRYPT</w>
x html</w>
st ine</w>
my sql</w>
W on</w>
LE EP</w>
cre w</w>
a id</w>
Zi el</w>
X cos</w>
Simul ated</w>
O M
N P</w>
Ar med</w>
ren amed</w>
local best</w>
key board</w>
f qn</w>
cas ted</w>
X mp</w>
Esc aping</w>
D ENTI
shoo ter</w>
s ol</w>
ron tier</w>
pur pose</w>
pre v
job entry</w>
int l</w>
cl d</w>
bul k</w>
Pri sm</w>
Cu bic</w>
st um</w>
Parame teri
Me ga</w>
Graph s</w>
De posit</w>
DEPRE CATED</w>
Ch ance</w>
Ab br</w>
ASSER TIONS</w>
o types</w>
Supp ressed</w>
E poch</w>
is ol
arb age</w>
X Q</w>
Occur ance</w>
NAMESP AC
Mo der
Id i</w>
C rc</w>
x end</w>
log ic</w>
REGRES SION</w>
K I</w>
HT M</w>
AUTHORIZ ED</w>
x ed
ex cep</w>
di ffs</w>
d on
c rt</w>
Seri alisation</w>
APP LY</w>
se titem</w>
f ers</w>
XD DF</w>
Sti ll</w>
S ampling</w>
He artbeat</w>
Comm its</w>
un marsh
p ling</w>
ok ay</w>
configur ations</w>
aaaaaaaa aaaaaaaa
TE CH
SHE LL</w>
Par sers</w>
N IST</w>
Imprev ue</w>
En ums</w>
values list</w>
un nel</w>
mo ve
Up datable</w>
Transp orts</w>
Co don</w>
p ress</w>
m enge</w>
d to</w>
Pres sure</w>
PRE SEN
C UT</w>
Al bum</w>
se x</w>
Ver ified</w>
Cross over</w>
Compos ant</w>
ADAP TER</w>
smoo thing</w>
si onal</w>
re co
l de</w>
SEC URE</w>
In stal
Gr p</w>
DI STIN
refer rer</w>
po steri
i me</w>
PROPER TY
Construc table</w>
r ms</w>
atta cking</w>
WEIGHT METHOD</w>
St oring</w>
O fs</w>
Ca sh
v stack</w>
scan size</w>
mo ving</w>
comm it
W ts</w>
SH R</w>
Refac tor</w>
MODI FICATION</w>
INDE XED</w>
Ex ts</w>
ir ing</w>
def ender</w>
Re ac
Le a
Ad ministr
AL G</w>
qu antile</w>
gen es</w>
g au
eo interface</w>
d up
CA RET</w>
web objects</w>
ur y</w>
u su
en otype</w>
T RE
L LED</w>
r pc
e left</w>
clu st</w>
DISTIN CT</w>
Al ter</w>
A way</w>
oql clean</w>
l end</w>
l dc</w>
Un qualified</w>
Prox ool</w>
Hash er</w>
D ap</w>
tur tle</w>
os lo</w>
indi cators</w>
in fo
coun ters</w>
vi su</w>
ty p</w>
e lec
array s</w>
Auth ors</w>
substitu ted</w>
se ssi
possi bles</w>
in spect</w>
ic a</w>
ans wers</w>
WID GET</w>
Sli m</w>
P in
IMPLE MENT</w>
un wrapped</w>
star tline</w>
Shoo ter</w>
PUT FIELD</w>
Measu rements</w>
ID PP</w>
vo ice</w>
br ate</w>
White spaces</w>
WA ITING</w>
STRU CT</w>
FUN C
Ch un
un defined</w>
open nms</w>
k pg</w>
fl g</w>
can celed</w>
POST GRE
In formed</w>
ss f</w>
pri e
pp info</w>
c il</w>
ace tone</w>
Tin y</w>
Refresh er</w>
C m</w>
Ac ross</w>
res ting</w>
nex tob</w>
back log</w>
NAM ED</w>
M c</w>
L y
L st</w>
Cash flow</w>
h unk</w>
U ma</w>
Sub script</w>
I JS</w>
Contr agent</w>
g ence</w>
PH ONE</w>
Modul us</w>
I mp</w>
E OPPOSITE</w>
DO I</w>
At testation</w>
Ac knowledge</w>
z ing</w>
x query</w>
se lections</w>
in ner
har ness</w>
c tly</w>
SCAL AR</w>
Real time</w>
IN ING</w>
AS P
H ub</w>
F Q</w>
sc ount</w>
f ps</w>
WORK ER</w>
Pu shback</w>
NO DE
EC DH</w>
Con flicted</w>
Cn sqt</w>
te ned</w>
rs lt</w>
le st
id p
for get</w>
cy cles</w>
an ame</w>
SER VER
P LAN
vo l</w>
n ull
en er</w>
d si</w>
cri terion</w>
comp oser</w>
P nt</w>
Mo l</w>
Jet speed</w>
I ID</w>
G WT</w>
Consum es</w>
ren d</w>
provi des</w>
edi t
DIREC TED</w>
Bit set</w>
men tary</w>
l buf</w>
g ather</w>
F ew</w>
E c</w>
D up
Check point</w>
x bc</w>
web site</w>
e index</w>
bo mb</w>
test value</w>
SYB N
ID F</w>
C AN</w>
out buf</w>
ir wise</w>
J ECT
Gra bber</w>
GRAP H
mar t
j ar
co bweb</w>
c ps</w>
b vd</w>
milli seconds</w>
eng ines</w>
Sta ck
Qu ir
Pro jec
N io</w>
K ids</w>
C VS</w>
t pl</w>
VEN DOR</w>
Stop list</w>
REQUI RE</w>
P ump</w>
Lo ads</w>
Dis assembler</w>
D ups</w>
CAS E
zi one</w>
on line</w>
ne ws</w>
lo ops</w>
c da</w>
L uc
unsatis fiable</w>
consum ers</w>
Work ers</w>
UN MARSHAL</w>
Bo o</w>
wi red</w>
recor ding</w>
ar ms</w>
Sta ff</w>
Interle aved</w>
H IT</w>
Dr ill</w>
std dev</w>
ci tation</w>
as p</w>
ade mic</w>
Struc tures</w>
STOR AGE</w>
MI C</w>
AT CH</w>
comp osition</w>
Pack ageable</w>
ten tion</w>
roun ding</w>
rec no</w>
a des</w>
Index able</w>
CH ER</w>
C la</w>
cur r
b do</w>
auth z</w>
Tim ers</w>
QUIR K</w>
P BM</w>
L TR</w>
Er asure</w>
D ARY</w>
Consum ers</w>
stre aming</w>
real row</w>
m j</w>
IMP LICIT</w>
G et
D J</w>
Applic ator</w>
n read</w>
amp led</w>
Turn ip</w>
P ong</w>
typ ing</w>
par tner</w>
pa y</w>
fac tors</w>
St retch</w>
H LC</w>
Dig ital</w>
u tr
synchron iz
ste n</w>
min imal</w>
h mm</w>
cre ds</w>
S an
lo cs</w>
do i</w>
ca id</w>
XS G</w>
Mut ator</w>
De sire</w>
s of</w>
i fe
enum s</w>
Sub mitted</w>
Spo on</w>
Popu lator</w>
Ow ners</w>
FLA V
y stick</w>
NM TOKENS</w>
E sd</w>
ss n</w>
op i</w>
c ab</w>
blig ation</w>
Y index</w>
Incre ase</w>
co ur
b idi</w>
SS A</w>
satis fies</w>
re feren
qu ick
lib name</w>
au gment</w>
SE GMENT</w>
O me
Me thodref</w>
DEPLO YMENT</w>
le is</w>
U G
Tag lib</w>
N est</w>
LOOK UP</w>
Di rected</w>
CONFLIC T</w>
w dn</w>
fac ts</w>
decomp osition</w>
DELI M</w>
D ON
CLO SE
Ar tist</w>
y n</w>
x w</w>
me trical</w>
SYNTHE TIC</w>
Doc let</w>
Cli pping</w>
g lass</w>
bloc ked</w>
Trun cate</w>
MIN OR</w>
I face</w>
Defin able</w>
C NAME</w>
tu d</w>
sc aff
print msg</w>
look ups</w>
Ven n</w>
VER B</w>
PA IR</w>
IN FRA
Construc ting</w>
sh rink</w>
sh ort
ad jac
Arte fact</w>
un mar</w>
SP AN</w>
Po em</w>
r tns</w>
mem move</w>
cal i
Registr ations</w>
Re direction</w>
DRI VER</w>
D amaged</w>
node id</w>
m th</w>
im s</w>
b ci</w>
an cy</w>
T U</w>
OVERRI DE</w>
JD T</w>
IGNO RED</w>
Ad der</w>
sugg estions</w>
ow ed</w>
cumul ated</w>
cla uses</w>
UN EXPECTED</w>
SMI L</w>
COR NER</w>
p jp</w>
nu th</w>
lo s</w>
ali ties</w>
TH IN</w>
IMPLEMEN TED</w>
G ONE</w>
Cou pling</w>
Car ds</w>
B tree</w>
AR RA
r solve</w>
li sted</w>
Marsh all</w>
Mag ni
rank res</w>
ol sc</w>
mon ths</w>
doc uments</w>
R CURLY</w>
PARTI TION</w>
Fa c</w>
Bo mb
A j</w>
ag able</w>
Off ering</w>
L SID</w>
DEM AND</w>
Coordin ator</w>
SUPP LIED</w>
LA P</w>
COL LA
un subscribe</w>
subsum es</w>
s orting</w>
ln k</w>
i i
he ights</w>
g obj</w>
comp any</w>
bor ne</w>
Check out</w>
xml db</w>
tenti ally</w>
simil arity</w>
ph ys</w>
fi red</w>
ch arg</w>
b k
ack nowledge</w>
SERI AL</w>
Navig atable</w>
Ca tcher</w>
B tn
y attrib</w>
scaff olding</w>
pro plist</w>
n in</w>
an amer</w>
TRANSP ORT</w>
STRU CTED</w>
MAL FORMED</w>
k end</w>
i el
g lu</w>
d val</w>
Paren s</w>
uc le
se aled</w>
l lp</w>
V O</w>
Te le
STO RED</w>
INFRA STRUCTURE</w>
CON VERSION</w>
Atten dee</w>
As n</w>
val ence</w>
ur l
un mappable</w>
X index</w>
Tri mmed</w>
Tr acer</w>
R G</w>
OUT PUT
MATCH ING</w>
hyp er</w>
back fit</w>
Stu dio</w>
Poo ling</w>
Gener alization</w>
Ev o</w>
DIR TY</w>
t bs</w>
as serted</w>
D ASH</w>
Btn font</w>
tabl ename</w>
let ters</w>
i di
e gl</w>
cluste red</w>
app l</w>
ac cumulator</w>
sn ippet</w>
par sing</w>
lay ered</w>
f ourth</w>
an n
R Q</w>
GET STATIC</w>
G BC</w>
ener gy</w>
deli vered</w>
d te</w>
PACKA GES</w>
O W</w>
H R</w>
sig ning</w>
interce pted</w>
f p
co ds</w>
at r</w>
ad ditive</w>
U V</w>
Se xp</w>
Overri des</w>
Mine field</w>
J mx</w>
IC P</w>
um es</w>
trun cated</w>
p dh</w>
mon y</w>
P DB</w>
Ex clusions</w>
nulli fy</w>
lo ss
k y</w>
in ferred</w>
flo ats</w>
P itch</w>
FI C</w>
w fs</w>
on g
Z O
OR ANGE</w>
I q</w>
Eng ines</w>
A wt</w>
SO AP
stil ton</w>
UN D
R sp</w>
IN NER</w>
re tries</w>
r types</w>
lea f
U TIL</w>
SUR RO
Pu shed</w>
M ocks</w>
APP END</w>
pre vy</w>
ma ti
direc tional</w>
conne c
SEARCH PATH</w>
E ss
DE TE
Cali bration</w>
xml file</w>
ra te
POSTGRE SQL</w>
CU BE</w>
GRAP H</w>
A reas</w>
t bi</w>
reg pool</w>
q a</w>
TRANS FORM
Mi r
Do tted</w>
Brow sers</w>
st p
pen alty</w>
W idgets</w>
W ar</w>
Syn onym</w>
Scr atch</w>
Prin tln</w>
Me sh</w>
v sb</w>
En er
Bu y</w>
A ro
po s
c fe</w>
trape er</w>
pi e</w>
k fs</w>
i der</w>
ho sted</w>
L D
In clusion</w>
ba k</w>
Tou ched</w>
Provisi oning</w>
M ECH</w>
reac tant</w>
pre s</w>
mo ves</w>
X m
Step wise</w>
ten d</w>
t une</w>
optim al</w>
f namespace</w>
exi st
decomp iler</w>
b oca</w>
SAM P
RE SERVED</w>
Pro cs</w>
AL LY</w>
sa u</w>
b pixels</w>
sn ip
res tlet</w>
in ted</w>
disc o</w>
b st</w>
RELEAS ED</w>
FO LD</w>
FI G
Cor ba</w>
sign up</w>
interpol ation</w>
ec c</w>
o dd</w>
bin omial</w>
Tr acked</w>
Man u
F X</w>
sub mode</w>
so ap
de g</w>
Tech nology</w>
SV MTYPE</w>
Ma kefile</w>
G PS</w>
Un recognized</w>
Str ok
Pe g</w>
re late</w>
cl r</w>
NEE DS</w>
Mar ks</w>
LI ER</w>
ACCES SIBLE</w>
re qs</w>
optim ized</w>
RO TATION</w>
List opt</w>
Iter ators</w>
tempor al</w>
t model</w>
sk ills</w>
s ine</w>
i des</w>
am id</w>
Subs notify</w>
Multi line</w>
Mo ving</w>
M or
Audi tor</w>
A v</w>
w all</w>
po ssibility</w>
pk i</w>
n ls</w>
li g
et place</w>
co vs</w>
c ats</w>
authenti cated</w>
UR S</w>
Tu be</w>
PROCE D
BREA K
tur b
craw ler</w>
SPAR SE</w>
stand alone</w>
proto cols</w>
jo iner</w>
ide ga</w>
app le</w>
Sn iff</w>
REF RESH</w>
Er rs</w>
Di agno
Deta ched</w>
sc aped</w>
ish able</w>
enum i</w>
b ird</w>
VO UR
FA VOUR
oc cu
log prob</w>
cap tured</w>
Relev ant</w>
Ad j</w>
pu b
bl ks</w>
Ste ady</w>
Log on</w>
L BRACKET</w>
F ine</w>
Dis assembly</w>
Cal lee</w>
x d
recor ded</w>
pre vx</w>
pla intext</w>
OS X</w>
Me g</w>
Ep isode</w>
E p</w>
DO L
DI SC
ri x</w>
edi tors</w>
X form</w>
Ren amer</w>
Partition er</w>
OC CUR
Me thane</w>
Ma kernote</w>
J ust</w>
Exten sible</w>
un checked</w>
re construct</w>
inte rest</w>
in set</w>
d name</w>
Prin cess</w>
PERSIST ENT</w>
O ffice</w>
MID DLE</w>
Introdu ction</w>
F ind
Ca mel</w>
ASSOCI ATION</w>
so me
ser ver
s mart</w>
j ps</w>
elic ula</w>
coe fficient</w>
PU B</w>
Loc ate</w>
H ops</w>
no ten</w>
Y EAR
S ash</w>
Li g
La tin</w>
Dou bles</w>
turb ation</w>
cap ability</w>
adap ted</w>
D NAME</w>
vi ously</w>
t fa</w>
ar chetype</w>
Y ield</w>
Sc i</w>
Out come</w>
MAR CH</w>
En closed</w>
Check ers</w>
start column</w>
random ized</w>
out side</w>
o h</w>
num s</w>
new oid</w>
medi um</w>
TEMP LAT
C MP
tiv e
no tif</w>
edi tion</w>
Z Y</w>
UN SPECIFIED</w>
T w
T p</w>
Step per</w>
Se quen
SE X
Interce pted</w>
CHUNK S</w>
n sp
m vel</w>
hyp ot</w>
L AND</w>
Gra vity</w>
w idgets</w>
sem aphore</w>
cor rec
cer t
bl ink</w>
X J</w>
S LEEP</w>
PER CENT</w>
L O</w>
HEL PER</w>
H yp</w>
Gu ided</w>
Fir ings</w>
tain ty</w>
sto mp</w>
p nt</w>
fil tering</w>
ac quisition</w>
R ING</w>
P TR</w>
I PDE</w>
D y</w>
v ey
inten sity</w>
ad dressing</w>
Trans mitter</w>
PO I</w>
FR AM
E ER</w>
posteri ors</w>
g zip</w>
c cf</w>
Sig s</w>
SYMBO LIC
SYMBOLIC NAME</w>
SY S</w>
Fa ce
DIAG NO
r left</w>
i u</w>
end l</w>
atch ing</w>
Bas edir</w>
re covered</w>
miss ing
im ag
ff use</w>
TH REE</w>
Roun ded</w>
INDE TERMINATE</w>
G ig
Ba z</w>
peri o
ne uron</w>
TE N</w>
PRO G</w>
PA Y
Ma v</w>
re map</w>
H U
Bo ss</w>
st ok</w>
ho st
LA D</w>
ta ho
sig moid</w>
ref ox</w>
r fc</w>
or ange</w>
on er</w>
ed t</w>
cre ature</w>
ab bre
Un selected</w>
Std dev</w>
MODI FY</w>
Fin ger</w>
Determin ation</w>
C DR</w>
vi p</w>
or ten</w>
bl end
at omic</w>
Re setting</w>
MI Z
t int</w>
li sting</w>
UP LOAD</w>
Pro mo</w>
Pr nts</w>
pro ce
ff f</w>
Fe ed
Ex ceeded</w>
su spended</w>
row pos</w>
mul tivalued</w>
[...]
